
#ifndef MODEL_H
#define MODEL_H

unsigned char model[] = {
0x1c, 0x00, 0x00, 0x00, 0x54, 0x46, 0x4c, 0x33, 0x14, 0x00, 0x20, 0x00,
0x1c, 0x00, 0x18, 0x00, 0x14, 0x00, 0x10, 0x00, 0x0c, 0x00, 0x00, 0x00,
0x08, 0x00, 0x04, 0x00, 0x14, 0x00, 0x00, 0x00, 0x1c, 0x00, 0x00, 0x00,
0x84, 0x00, 0x00, 0x00, 0xdc, 0x00, 0x00, 0x00, 0xa8, 0x19, 0x00, 0x00,
0xb8, 0x19, 0x00, 0x00, 0xb0, 0x29, 0x00, 0x00, 0x03, 0x00, 0x00, 0x00,
0x01, 0x00, 0x00, 0x00, 0x04, 0x00, 0x00, 0x00, 0x12, 0xe4, 0xff, 0xff,
0x0c, 0x00, 0x00, 0x00, 0x1c, 0x00, 0x00, 0x00, 0x3c, 0x00, 0x00, 0x00,
0x0f, 0x00, 0x00, 0x00, 0x73, 0x65, 0x72, 0x76, 0x69, 0x6e, 0x67, 0x5f,
0x64, 0x65, 0x66, 0x61, 0x75, 0x6c, 0x74, 0x00, 0x01, 0x00, 0x00, 0x00,
0x04, 0x00, 0x00, 0x00, 0x98, 0xff, 0xff, 0xff, 0x1b, 0x00, 0x00, 0x00,
0x04, 0x00, 0x00, 0x00, 0x08, 0x00, 0x00, 0x00, 0x63, 0x6f, 0x6e, 0x76,
0x32, 0x64, 0x5f, 0x34, 0x00, 0x00, 0x00, 0x00, 0x01, 0x00, 0x00, 0x00,
0x04, 0x00, 0x00, 0x00, 0x1a, 0xe9, 0xff, 0xff, 0x04, 0x00, 0x00, 0x00,
0x07, 0x00, 0x00, 0x00, 0x69, 0x6e, 0x70, 0x75, 0x74, 0x5f, 0x31, 0x00,
0x02, 0x00, 0x00, 0x00, 0x34, 0x00, 0x00, 0x00, 0x04, 0x00, 0x00, 0x00,
0xdc, 0xff, 0xff, 0xff, 0x1e, 0x00, 0x00, 0x00, 0x04, 0x00, 0x00, 0x00,
0x13, 0x00, 0x00, 0x00, 0x43, 0x4f, 0x4e, 0x56, 0x45, 0x52, 0x53, 0x49,
0x4f, 0x4e, 0x5f, 0x4d, 0x45, 0x54, 0x41, 0x44, 0x41, 0x54, 0x41, 0x00,
0x08, 0x00, 0x0c, 0x00, 0x08, 0x00, 0x04, 0x00, 0x08, 0x00, 0x00, 0x00,
0x1d, 0x00, 0x00, 0x00, 0x04, 0x00, 0x00, 0x00, 0x13, 0x00, 0x00, 0x00,
0x6d, 0x69, 0x6e, 0x5f, 0x72, 0x75, 0x6e, 0x74, 0x69, 0x6d, 0x65, 0x5f,
0x76, 0x65, 0x72, 0x73, 0x69, 0x6f, 0x6e, 0x00, 0x1f, 0x00, 0x00, 0x00,
0xc8, 0x18, 0x00, 0x00, 0xc0, 0x18, 0x00, 0x00, 0x70, 0x16, 0x00, 0x00,
0x54, 0x16, 0x00, 0x00, 0x04, 0x16, 0x00, 0x00, 0xd4, 0x15, 0x00, 0x00,
0xbc, 0x15, 0x00, 0x00, 0xac, 0x0c, 0x00, 0x00, 0x98, 0x0c, 0x00, 0x00,
0x84, 0x0c, 0x00, 0x00, 0x34, 0x0a, 0x00, 0x00, 0xa4, 0x05, 0x00, 0x00,
0x14, 0x01, 0x00, 0x00, 0x0c, 0x01, 0x00, 0x00, 0x04, 0x01, 0x00, 0x00,
0xfc, 0x00, 0x00, 0x00, 0xf4, 0x00, 0x00, 0x00, 0xec, 0x00, 0x00, 0x00,
0xe4, 0x00, 0x00, 0x00, 0xdc, 0x00, 0x00, 0x00, 0xd4, 0x00, 0x00, 0x00,
0xcc, 0x00, 0x00, 0x00, 0xc4, 0x00, 0x00, 0x00, 0xbc, 0x00, 0x00, 0x00,
0xb4, 0x00, 0x00, 0x00, 0xac, 0x00, 0x00, 0x00, 0xa4, 0x00, 0x00, 0x00,
0x9c, 0x00, 0x00, 0x00, 0x94, 0x00, 0x00, 0x00, 0x74, 0x00, 0x00, 0x00,
0x04, 0x00, 0x00, 0x00, 0x0a, 0xea, 0xff, 0xff, 0x04, 0x00, 0x00, 0x00,
0x60, 0x00, 0x00, 0x00, 0x0c, 0x00, 0x00, 0x00, 0x08, 0x00, 0x0e, 0x00,
0x08, 0x00, 0x04, 0x00, 0x08, 0x00, 0x00, 0x00, 0x10, 0x00, 0x00, 0x00,
0x28, 0x00, 0x00, 0x00, 0x00, 0x00, 0x06, 0x00, 0x08, 0x00, 0x04, 0x00,
0x06, 0x00, 0x00, 0x00, 0x04, 0x00, 0x00, 0x00, 0x01, 0x00, 0x00, 0x00,
0xea, 0x03, 0x00, 0x00, 0x0c, 0x00, 0x18, 0x00, 0x14, 0x00, 0x10, 0x00,
0x0c, 0x00, 0x04, 0x00, 0x0c, 0x00, 0x00, 0x00, 0x79, 0x2f, 0x44, 0x13,
0x0e, 0x5d, 0xc7, 0xdf, 0x02, 0x00, 0x00, 0x00, 0x02, 0x00, 0x00, 0x00,
0x04, 0x00, 0x00, 0x00, 0x06, 0x00, 0x00, 0x00, 0x32, 0x2e, 0x31, 0x38,
0x2e, 0x30, 0x00, 0x00, 0x76, 0xea, 0xff, 0xff, 0x04, 0x00, 0x00, 0x00,
0x10, 0x00, 0x00, 0x00, 0x32, 0x2e, 0x34, 0x2e, 0x30, 0x00, 0x00, 0x00,
0x00, 0x00, 0x00, 0x00, 0x00, 0x00, 0x00, 0x00, 0x64, 0xd8, 0xff, 0xff,
0x68, 0xd8, 0xff, 0xff, 0x6c, 0xd8, 0xff, 0xff, 0x70, 0xd8, 0xff, 0xff,
0x74, 0xd8, 0xff, 0xff, 0x78, 0xd8, 0xff, 0xff, 0x7c, 0xd8, 0xff, 0xff,
0x80, 0xd8, 0xff, 0xff, 0x84, 0xd8, 0xff, 0xff, 0x88, 0xd8, 0xff, 0xff,
0x8c, 0xd8, 0xff, 0xff, 0x90, 0xd8, 0xff, 0xff, 0x94, 0xd8, 0xff, 0xff,
0x98, 0xd8, 0xff, 0xff, 0x9c, 0xd8, 0xff, 0xff, 0xa0, 0xd8, 0xff, 0xff,
0xd2, 0xea, 0xff, 0xff, 0x04, 0x00, 0x00, 0x00, 0x80, 0x04, 0x00, 0x00,
0x37, 0xaa, 0x54, 0x3a, 0x44, 0x8f, 0x5e, 0x5b, 0xe8, 0xb1, 0x4e, 0x49,
0x26, 0x73, 0x66, 0x04, 0x25, 0x1e, 0x23, 0x03, 0x3d, 0x60, 0x89, 0x3a,
0x0c, 0x12, 0x51, 0x6b, 0x61, 0xf3, 0x97, 0x19, 0xb4, 0x8d, 0x5b, 0x89,
0xf7, 0x07, 0x00, 0xdd, 0x5c, 0x70, 0x8b, 0xa1, 0xea, 0x68, 0xbe, 0xd2,
0xd2, 0x17, 0x59, 0xe0, 0xc1, 0x86, 0x08, 0x1c, 0x9a, 0xeb, 0x7d, 0x45,
0xec, 0xde, 0xcc, 0xc1, 0xac, 0x7f, 0x22, 0x8f, 0x21, 0xd2, 0x39, 0xbf,
0x86, 0xba, 0xf1, 0xf4, 0xa5, 0xbb, 0x08, 0x0c, 0xe4, 0xdb, 0xe3, 0x25,
0xa6, 0x8a, 0x5e, 0x12, 0x25, 0x61, 0x31, 0x8f, 0x97, 0x2c, 0xd2, 0x67,
0x05, 0xac, 0xe7, 0x13, 0xa2, 0xad, 0xaa, 0x89, 0xcb, 0x73, 0xc3, 0xa9,
0x32, 0x28, 0xc2, 0x4a, 0x5a, 0xac, 0x25, 0x43, 0xf9, 0x8b, 0xe2, 0xaf,
0x0e, 0xa6, 0x3f, 0x3e, 0xf6, 0xc5, 0xa2, 0xed, 0xa2, 0xe7, 0xb0, 0xed,
0xdf, 0xe9, 0x41, 0x8b, 0xac, 0x83, 0xc0, 0xea, 0xfe, 0x91, 0x02, 0xe3,
0xb1, 0x91, 0x13, 0xdf, 0xda, 0x1f, 0x93, 0xf9, 0x24, 0xd7, 0x94, 0x6e,
0x71, 0x8f, 0xaf, 0xf7, 0x81, 0xe4, 0xff, 0xab, 0xb0, 0x3d, 0x81, 0xf4,
0xd7, 0xd7, 0xcb, 0xf9, 0x42, 0xb4, 0x47, 0xc4, 0xc6, 0xa2, 0x1b, 0x39,
0x1c, 0xbe, 0x56, 0x3c, 0x91, 0x98, 0x5c, 0x21, 0x07, 0xb4, 0x18, 0xda,
0xcf, 0x51, 0x6c, 0x1a, 0x6c, 0x94, 0xd8, 0xc6, 0xa1, 0xdb, 0x51, 0xd4,
0xbb, 0xfe, 0xa6, 0x29, 0x1d, 0xcc, 0xfb, 0xa9, 0xd2, 0x27, 0x59, 0x46,
0x1f, 0x8b, 0xd1, 0x0d, 0x36, 0xec, 0x7d, 0xc8, 0x5f, 0xe2, 0xdc, 0x28,
0x13, 0xc9, 0xd5, 0xdb, 0xf2, 0xb8, 0x3d, 0x2b, 0x4f, 0xaa, 0x43, 0x7c,
0xe3, 0x51, 0x96, 0x5a, 0x7d, 0xfc, 0x30, 0x00, 0x1e, 0x50, 0x39, 0x67,
0x5e, 0x5d, 0x7e, 0xdb, 0x7f, 0x29, 0x79, 0x2d, 0xda, 0x00, 0xc4, 0x45,
0x3f, 0xd4, 0x7a, 0xb1, 0xb7, 0xea, 0x32, 0xa2, 0x86, 0x71, 0x0f, 0x85,
0x01, 0xeb, 0xe1, 0x03, 0x8c, 0x92, 0x50, 0xac, 0xd9, 0x11, 0x44, 0xa1,
0x83, 0x71, 0xa0, 0xd9, 0xbd, 0x42, 0x0a, 0xab, 0x65, 0x40, 0x37, 0x01,
0x7c, 0xe7, 0x74, 0x6f, 0xf8, 0x89, 0xad, 0xa5, 0x81, 0x6d, 0xbf, 0x87,
0x86, 0x33, 0x27, 0xf5, 0x44, 0x2b, 0xbf, 0xcc, 0x6b, 0x7b, 0xca, 0xdd,
0x76, 0x03, 0x65, 0x1b, 0x8a, 0xc1, 0xea, 0xcc, 0x1d, 0x9d, 0xd4, 0xba,
0x6f, 0x92, 0xbe, 0xc4, 0x9f, 0x63, 0x50, 0x7b, 0xc5, 0x99, 0x7a, 0x57,
0xf2, 0xb9, 0xdf, 0x95, 0xec, 0x4c, 0xf5, 0xb6, 0xc4, 0xd6, 0xc7, 0x18,
0x65, 0xc7, 0xf3, 0xd3, 0x04, 0x33, 0x72, 0xb1, 0xd5, 0x8b, 0x86, 0xa5,
0x4b, 0xbd, 0xb9, 0xc2, 0x55, 0x24, 0x3d, 0x9c, 0xf1, 0xde, 0xe1, 0xde,
0xc4, 0x41, 0xc0, 0x5c, 0x9d, 0x60, 0x59, 0xff, 0xb7, 0xd4, 0x24, 0x6b,
0xba, 0x1c, 0xec, 0x5e, 0xfa, 0xbf, 0x84, 0xb0, 0x7e, 0x20, 0xba, 0xc4,
0x7d, 0x1b, 0xd6, 0x17, 0xe3, 0x98, 0xbe, 0xf1, 0x7c, 0x4d, 0x65, 0xe6,
0x04, 0xe0, 0xa3, 0x3b, 0x98, 0x4f, 0x23, 0x7f, 0x50, 0x70, 0x83, 0xce,
0x5a, 0x6b, 0xe5, 0x44, 0xf7, 0x03, 0xaf, 0x3f, 0x24, 0xf4, 0xc9, 0xd0,
0x39, 0x8e, 0xef, 0x01, 0x7f, 0x8e, 0x51, 0x56, 0xae, 0x1b, 0x3b, 0x46,
0xd2, 0xf8, 0xec, 0x7b, 0xa7, 0x33, 0xdd, 0x5a, 0xe6, 0xc6, 0xb5, 0x2a,
0x14, 0xdb, 0xdc, 0xf1, 0x66, 0xc0, 0xe9, 0x39, 0x6a, 0x82, 0xfb, 0x5b,
0x37, 0x00, 0x46, 0xdc, 0xd1, 0x52, 0xe0, 0xd0, 0xda, 0xf5, 0xa6, 0x09,
0x86, 0x90, 0x8a, 0x53, 0x3a, 0x88, 0xef, 0xde, 0x06, 0x7c, 0xe2, 0x9c,
0x48, 0xfe, 0xc2, 0x41, 0x54, 0xb4, 0x8d, 0xf0, 0x34, 0x64, 0x5e, 0x32,
0xac, 0x50, 0xe2, 0x90, 0xb9, 0xe4, 0x3b, 0x47, 0x26, 0x96, 0x1c, 0x7d,
0xd4, 0xa9, 0x0c, 0x6c, 0xf0, 0x05, 0x22, 0x19, 0x9a, 0xb8, 0x24, 0x2b,
0x5b, 0x1f, 0xc1, 0x6b, 0x16, 0xbb, 0xf7, 0x60, 0x02, 0x6b, 0xd9, 0x69,
0x1c, 0x43, 0x9e, 0x2d, 0xdd, 0x0b, 0xbf, 0x59, 0x91, 0x59, 0x62, 0x3f,
0xa4, 0x60, 0xf0, 0x08, 0x1e, 0xf9, 0xc3, 0x22, 0x35, 0xff, 0x45, 0xb7,
0xca, 0x8e, 0x19, 0x55, 0xaa, 0x8d, 0x04, 0xb9, 0x8d, 0x4d, 0x38, 0x77,
0x15, 0xf3, 0xc1, 0x82, 0x3a, 0xb6, 0x57, 0x9a, 0xd5, 0xa5, 0x99, 0xe0,
0x4a, 0x2e, 0x8d, 0xc3, 0xa1, 0xbe, 0x5f, 0x15, 0x66, 0x9d, 0x6a, 0x98,
0xea, 0xc9, 0x82, 0x0e, 0xd6, 0x73, 0xaa, 0x69, 0x91, 0x18, 0x8e, 0x78,
0x68, 0x90, 0xe5, 0xd7, 0x2b, 0x60, 0xbd, 0x32, 0xf0, 0x0b, 0x21, 0x32,
0xcc, 0xd2, 0x15, 0x88, 0x66, 0xe2, 0xc0, 0x61, 0x18, 0xa4, 0xd2, 0xa4,
0xfc, 0x81, 0x16, 0xc4, 0xa1, 0x9f, 0x76, 0x09, 0xf8, 0x34, 0x8f, 0xdb,
0xb3, 0xa3, 0xd5, 0xdb, 0xe9, 0x81, 0x67, 0x10, 0x33, 0x0b, 0x1c, 0x07,
0x5d, 0x90, 0x24, 0xe9, 0xae, 0xcb, 0xe5, 0xa8, 0xc3, 0x87, 0xf1, 0x62,
0x62, 0xf3, 0x15, 0xe5, 0x47, 0x1b, 0x9a, 0x88, 0x95, 0x6b, 0x46, 0x6b,
0xdd, 0xec, 0xd7, 0x61, 0x9a, 0xe1, 0xb4, 0x2d, 0xb2, 0x34, 0x2a, 0x76,
0xca, 0xea, 0x97, 0xe2, 0x10, 0x8e, 0x02, 0xe7, 0xd7, 0x7c, 0xa7, 0x13,
0x8f, 0x23, 0xfd, 0x10, 0x31, 0x3d, 0xf8, 0xe4, 0x03, 0x06, 0x36, 0x50,
0xf2, 0x23, 0x3a, 0x79, 0x81, 0x96, 0x6c, 0xe6, 0xb2, 0xab, 0xbf, 0xcb,
0x36, 0xa9, 0x23, 0xa0, 0x17, 0x0a, 0x5f, 0xd5, 0x8f, 0xaa, 0x63, 0x4a,
0x9f, 0xdb, 0x03, 0x29, 0xae, 0x04, 0x24, 0xe8, 0x7c, 0x7b, 0x45, 0xd9,
0x21, 0x57, 0x95, 0x7c, 0x72, 0x8d, 0xe7, 0xd9, 0xe2, 0xe5, 0x67, 0x16,
0x10, 0x46, 0x2a, 0xa8, 0xef, 0xad, 0x40, 0x23, 0xf6, 0x4f, 0x4d, 0xdc,
0x56, 0x2b, 0x29, 0x9f, 0xf5, 0x88, 0x17, 0x01, 0x0a, 0x32, 0x10, 0x30,
0x05, 0x46, 0xab, 0x39, 0x79, 0x19, 0xfe, 0xd0, 0xf5, 0x65, 0xfe, 0x29,
0x61, 0x7c, 0xf1, 0x10, 0x87, 0xae, 0xca, 0xc6, 0x0b, 0x64, 0x97, 0xb0,
0x51, 0xf9, 0xf5, 0x5a, 0xa0, 0x54, 0x52, 0x16, 0xd8, 0xb3, 0x4f, 0xba,
0xb3, 0xbb, 0xef, 0x04, 0x0a, 0xe3, 0x91, 0x61, 0x2b, 0x45, 0xc3, 0x95,
0x9b, 0xa3, 0x63, 0xa4, 0x58, 0x52, 0xf1, 0xbf, 0xd3, 0x43, 0x10, 0x04,
0xb7, 0x10, 0x2a, 0x8b, 0xf1, 0xa3, 0xba, 0x69, 0xc9, 0xda, 0x34, 0x94,
0x52, 0x66, 0x3e, 0x40, 0x2a, 0xeb, 0x67, 0xd0, 0x49, 0xab, 0x53, 0x6b,
0x1a, 0x7e, 0x34, 0x3f, 0x69, 0x04, 0x63, 0x9b, 0xda, 0x7d, 0x40, 0x92,
0xf4, 0x17, 0x1b, 0x72, 0x74, 0xb9, 0x8f, 0x2e, 0xae, 0x42, 0xc3, 0xa2,
0x62, 0xed, 0x36, 0x7e, 0x26, 0xcd, 0xdd, 0xa3, 0x25, 0x34, 0xfd, 0xa3,
0x51, 0x24, 0xbb, 0x07, 0xb8, 0x5e, 0x7d, 0xa9, 0xee, 0x85, 0x54, 0xe8,
0xb6, 0x78, 0x5b, 0x4c, 0xb3, 0xd7, 0x30, 0xb2, 0xad, 0xa9, 0xba, 0x56,
0x08, 0x50, 0x9e, 0xcd, 0xdf, 0x7e, 0xb6, 0x32, 0xde, 0x40, 0x06, 0x66,
0xef, 0xfd, 0x44, 0xd3, 0x2b, 0x00, 0x3f, 0x19, 0x7f, 0xcd, 0xa3, 0xc2,
0x8f, 0x51, 0x15, 0x65, 0xee, 0xee, 0xe2, 0x11, 0x94, 0x63, 0x11, 0x58,
0x24, 0x2a, 0xbc, 0x88, 0x12, 0x29, 0xc0, 0x69, 0xa3, 0x6c, 0x9f, 0xd2,
0x06, 0x31, 0x85, 0x44, 0x72, 0xf8, 0x74, 0xb4, 0xe6, 0x31, 0x29, 0x03,
0xc0, 0x66, 0xb5, 0x72, 0x14, 0x2f, 0x96, 0x31, 0xae, 0xc2, 0xac, 0x0f,
0x75, 0x24, 0xef, 0x87, 0xc3, 0x85, 0x9f, 0x28, 0xa2, 0x23, 0xad, 0xd6,
0x7e, 0xda, 0x15, 0x55, 0x9e, 0xee, 0x2c, 0xd4, 0x56, 0xf9, 0x5b, 0x82,
0x34, 0x95, 0xad, 0x2b, 0x4a, 0x81, 0xc2, 0x46, 0x41, 0xc0, 0xf5, 0xf2,
0x3f, 0x55, 0xa4, 0x91, 0x06, 0x27, 0xbf, 0xf8, 0x98, 0xef, 0xb3, 0xf8,
0x0b, 0xbb, 0xd1, 0xdf, 0x1b, 0x5b, 0xd7, 0xe0, 0x63, 0x1c, 0x34, 0xdd,
0xb4, 0x33, 0x74, 0x01, 0xb6, 0x9f, 0x91, 0xca, 0xd1, 0x19, 0xc8, 0x87,
0xc6, 0x01, 0xa9, 0xb9, 0xeb, 0x54, 0x7a, 0x45, 0x22, 0x41, 0x77, 0x86,
0x50, 0x34, 0xce, 0xd6, 0x83, 0x19, 0xb6, 0xb4, 0xb8, 0xd2, 0x7c, 0xbf,
0xb6, 0x38, 0x1c, 0x97, 0xc0, 0x47, 0x13, 0x42, 0xde, 0xdb, 0x12, 0xab,
0x50, 0x29, 0x72, 0x17, 0xf9, 0x17, 0x8a, 0xa2, 0x8c, 0xaa, 0xfe, 0xd3,
0x88, 0x43, 0x04, 0x2d, 0x1e, 0x6d, 0x17, 0xd2, 0x40, 0x4c, 0x44, 0x31,
0x5e, 0xef, 0xff, 0xff, 0x04, 0x00, 0x00, 0x00, 0x80, 0x04, 0x00, 0x00,
0x5c, 0xb9, 0xb9, 0x65, 0xe9, 0x54, 0x52, 0x50, 0xcd, 0xc8, 0xa9, 0x0c,
0x29, 0x29, 0xf6, 0x96, 0xc7, 0x1f, 0xe8, 0x9d, 0x4a, 0x97, 0xb7, 0xae,
0x4b, 0x36, 0xfb, 0x3c, 0xc9, 0x54, 0x91, 0x18, 0x0d, 0x18, 0x13, 0xae,
0x87, 0x56, 0x06, 0x81, 0x32, 0x56, 0x7c, 0xa9, 0x18, 0x79, 0x6e, 0xf0,
0x2d, 0xbd, 0x06, 0xd1, 0xba, 0x04, 0x39, 0xa1, 0x46, 0x06, 0x48, 0x2a,
0x37, 0x34, 0xef, 0x96, 0xdf, 0x89, 0x36, 0xbe, 0xa9, 0x4f, 0xe1, 0xd7,
0xbf, 0x8f, 0xbc, 0x39, 0xd5, 0xdb, 0xb0, 0x4f, 0x6a, 0x59, 0x40, 0x1e,
0x93, 0x90, 0x6a, 0xcf, 0x8d, 0x36, 0x01, 0xb9, 0x54, 0x2c, 0xe2, 0xc0,
0x53, 0xb0, 0x0a, 0xad, 0xc8, 0xc9, 0x0b, 0x19, 0x13, 0x81, 0xc5, 0xe0,
0xb7, 0x9b, 0xbf, 0x00, 0x24, 0x7b, 0x78, 0x4c, 0x4e, 0x47, 0x29, 0xc7,
0xc0, 0x4d, 0xa2, 0x7d, 0x29, 0xf7, 0x87, 0x6e, 0x83, 0xb4, 0x0e, 0x53,
0xac, 0xeb, 0x9a, 0xc4, 0xd5, 0xa8, 0x8f, 0xee, 0x5d, 0x6c, 0x74, 0xaa,
0x67, 0xce, 0x4a, 0x17, 0xc7, 0xfd, 0x8e, 0x93, 0x3a, 0x18, 0xc4, 0xdf,
0x91, 0xff, 0x31, 0xb4, 0x39, 0x65, 0xd7, 0x2e, 0xc8, 0xa3, 0xcc, 0x89,
0x8d, 0x64, 0xc2, 0x7c, 0x26, 0x93, 0xbf, 0xbf, 0x29, 0xa7, 0x69, 0xb9,
0xd2, 0x74, 0x44, 0x7e, 0x35, 0xe0, 0xfb, 0xa0, 0x06, 0x14, 0xd3, 0x9c,
0xed, 0xed, 0xd7, 0xc3, 0x7f, 0x39, 0x27, 0x11, 0x94, 0x92, 0xb6, 0x6e,
0x92, 0x3a, 0x49, 0xff, 0x1e, 0x32, 0x51, 0xf5, 0x7e, 0xf4, 0x71, 0xbf,
0x72, 0xea, 0x88, 0x7f, 0x54, 0x14, 0x72, 0x95, 0xd1, 0x5b, 0xb3, 0x78,
0x05, 0xf9, 0xd7, 0x9e, 0x56, 0x93, 0x0d, 0x10, 0xb2, 0x0f, 0xbd, 0x8b,
0xc3, 0x1d, 0x8c, 0x49, 0xf2, 0x01, 0x48, 0x1e, 0x03, 0x6e, 0x24, 0xf0,
0x17, 0xa0, 0xf6, 0xdc, 0x59, 0xca, 0x7a, 0xea, 0xd9, 0x77, 0x07, 0x67,
0xe0, 0xa6, 0x5c, 0xf0, 0x0d, 0xa9, 0xa1, 0x93, 0x9a, 0xcc, 0xf6, 0x67,
0xe0, 0xdf, 0xb8, 0xea, 0x64, 0x78, 0x2d, 0xbb, 0xf2, 0x14, 0xd7, 0x43,
0x30, 0x5d, 0xde, 0xb2, 0x0e, 0x4e, 0xc0, 0x97, 0x27, 0x90, 0xa5, 0x60,
0xfe, 0x05, 0x1c, 0x44, 0x3d, 0x9e, 0xae, 0x6f, 0x2b, 0xb1, 0x04, 0xc0,
0x21, 0x2e, 0x88, 0xf0, 0x81, 0x28, 0x03, 0x8a, 0x46, 0xd1, 0x91, 0xa9,
0x2e, 0x8a, 0x01, 0xf0, 0x1f, 0x7a, 0x06, 0x66, 0xd6, 0x6e, 0x62, 0x23,
0xbf, 0x9c, 0x9e, 0x12, 0x83, 0x37, 0xc0, 0x2e, 0x47, 0xc9, 0x6a, 0x88,
0x18, 0x75, 0xcb, 0x2f, 0xd2, 0xcf, 0x04, 0x3b, 0x35, 0xab, 0xcc, 0x26,
0xae, 0x28, 0x1c, 0x71, 0x3a, 0x01, 0x02, 0xad, 0x7a, 0xf1, 0xd6, 0x15,
0x2e, 0x86, 0x37, 0x0a, 0x62, 0xc2, 0xd8, 0x20, 0xc7, 0x47, 0xfb, 0x21,
0xc1, 0x40, 0x5c, 0x41, 0x3e, 0xb3, 0xce, 0x2a, 0x4d, 0xe4, 0x82, 0xde,
0x3b, 0x36, 0x49, 0x0e, 0x30, 0x05, 0x81, 0x60, 0x9e, 0x71, 0xc5, 0x9b,
0xed, 0x8e, 0x74, 0x3d, 0x98, 0xbf, 0x7b, 0xfb, 0x26, 0xf4, 0x33, 0xcd,
0xe8, 0x16, 0x37, 0x82, 0x8b, 0x2f, 0x62, 0xb1, 0x64, 0x9f, 0x2a, 0x07,
0x81, 0x4e, 0x99, 0xaf, 0x45, 0x1b, 0xee, 0x58, 0xb2, 0x8e, 0xb8, 0x18,
0xfb, 0x71, 0xe1, 0x44, 0xf6, 0x5b, 0xc8, 0xd6, 0x08, 0x13, 0xc5, 0xe0,
0x99, 0x0b, 0x44, 0xe8, 0xff, 0xc2, 0x26, 0x6c, 0xdf, 0xf1, 0x3a, 0x81,
0x33, 0x7c, 0xff, 0xcc, 0x1d, 0x23, 0x01, 0x8b, 0xbf, 0x13, 0x59, 0x96,
0x1c, 0x12, 0xb9, 0xc4, 0xa6, 0xbc, 0x01, 0xed, 0xdd, 0x8e, 0xc1, 0xdc,
0x54, 0xaf, 0x84, 0x39, 0xb7, 0xa7, 0x62, 0xe6, 0x96, 0x95, 0x69, 0x47,
0x79, 0x4e, 0xb9, 0x4f, 0xc5, 0xb2, 0xd5, 0x75, 0x73, 0xc9, 0xe9, 0x39,
0x77, 0x7f, 0x29, 0x7c, 0xeb, 0x44, 0x94, 0x5a, 0x79, 0x38, 0x9d, 0x19,
0x2d, 0xb5, 0x61, 0xc8, 0x16, 0x3e, 0x02, 0x4d, 0xe4, 0x3a, 0xae, 0xf0,
0x19, 0xe6, 0xaa, 0x06, 0x64, 0xf3, 0x63, 0x67, 0x21, 0x5e, 0x4f, 0x6f,
0x4c, 0x07, 0x3f, 0x44, 0x20, 0x7a, 0xfd, 0xb0, 0x45, 0xa6, 0x2b, 0x04,
0xed, 0x5d, 0x63, 0xd5, 0x77, 0xd8, 0x5d, 0x22, 0x14, 0x79, 0xc2, 0x6d,
0x15, 0xbb, 0x2b, 0x15, 0x37, 0xa4, 0x57, 0x8e, 0x81, 0x64, 0xaf, 0xf9,
0x03, 0xcc, 0xd1, 0x3a, 0x27, 0x6a, 0xf9, 0x00, 0x3c, 0x5a, 0xaf, 0x5c,
0x7c, 0x73, 0xee, 0x0f, 0x1f, 0x0c, 0xed, 0xcb, 0xa4, 0x2f, 0x8c, 0x22,
0xff, 0x8b, 0xfb, 0x54, 0xb9, 0xc4, 0xaf, 0x1b, 0x7f, 0xfd, 0xc1, 0xa3,
0x2a, 0xfc, 0xd2, 0x27, 0x58, 0xd4, 0x10, 0x72, 0xbb, 0xc1, 0xa5, 0xcf,
0x3c, 0x67, 0x61, 0xc7, 0x7b, 0x20, 0xaf, 0x05, 0x9b, 0xdc, 0x8a, 0x60,
0xda, 0x0f, 0x9d, 0x07, 0x6c, 0x18, 0x83, 0x7d, 0x2a, 0x81, 0x94, 0xdc,
0xae, 0xc8, 0x4f, 0x4f, 0x6e, 0xb6, 0xcd, 0x4b, 0x8c, 0x6e, 0xcd, 0xd2,
0x09, 0x2d, 0xc1, 0xca, 0x7d, 0x51, 0x96, 0xfc, 0x38, 0x7a, 0x35, 0xfe,
0x3c, 0xc0, 0x6d, 0x8f, 0x7d, 0xbc, 0x94, 0xd7, 0xbf, 0x76, 0xc4, 0x9e,
0xed, 0x31, 0x11, 0x23, 0x37, 0x61, 0xf1, 0xb5, 0xd0, 0xbd, 0x44, 0x64,
0x2f, 0xbf, 0xac, 0x0b, 0x23, 0x5f, 0x24, 0x31, 0xc5, 0x21, 0x7a, 0x01,
0x42, 0x7e, 0x61, 0x73, 0xfa, 0x96, 0x0e, 0xc0, 0x7a, 0x66, 0x54, 0x2b,
0x9e, 0xba, 0x75, 0x67, 0x91, 0x81, 0x79, 0x63, 0xd3, 0xa8, 0x02, 0x97,
0x0d, 0xb1, 0x52, 0x31, 0xb9, 0x1e, 0x56, 0xfe, 0xb5, 0xe5, 0x2f, 0x73,
0x86, 0xcb, 0x98, 0xb1, 0x2c, 0x0d, 0x0d, 0xb6, 0x47, 0x82, 0x2b, 0x89,
0xea, 0x8d, 0x18, 0xbb, 0x26, 0x8a, 0x6c, 0x7f, 0xdd, 0xd2, 0xf9, 0xad,
0x91, 0xcc, 0x9f, 0x09, 0x8a, 0xc7, 0x08, 0x7b, 0x76, 0xba, 0x31, 0x79,
0x9b, 0x7d, 0xb5, 0x31, 0xe2, 0x34, 0x1b, 0x0a, 0x3b, 0xd9, 0x2e, 0xe5,
0x2c, 0x8c, 0xfa, 0xaf, 0xa0, 0x1d, 0xfb, 0x60, 0x3f, 0x7f, 0x5a, 0x78,
0x2a, 0xd3, 0x9b, 0xb3, 0x2a, 0x43, 0xa9, 0xb3, 0x53, 0xf8, 0xed, 0x0a,
0xf4, 0xae, 0x54, 0x97, 0xfd, 0x74, 0x24, 0x0f, 0xae, 0x5a, 0xe8, 0xaa,
0xc8, 0x82, 0x9a, 0x1b, 0xe9, 0x56, 0xe7, 0x3b, 0xb1, 0x62, 0x1e, 0x44,
0x08, 0x5f, 0x89, 0x42, 0xcc, 0xae, 0xd4, 0xf1, 0x90, 0xb8, 0xee, 0xba,
0x3b, 0xb7, 0xf9, 0x84, 0x85, 0xe3, 0x3d, 0x67, 0xab, 0xec, 0x46, 0x5b,
0x67, 0x19, 0x02, 0x4b, 0x63, 0x2e, 0x86, 0x30, 0x2b, 0xea, 0x9e, 0x53,
0x91, 0x56, 0x1a, 0x10, 0x40, 0xba, 0x8a, 0xb0, 0x3e, 0xf8, 0x28, 0x20,
0xa0, 0x4a, 0xf5, 0x43, 0xae, 0x95, 0x2a, 0x28, 0xb4, 0x1f, 0x2f, 0x5c,
0x89, 0x25, 0x79, 0x0c, 0x7f, 0x32, 0xc8, 0xe5, 0xe2, 0x62, 0xee, 0x62,
0xc0, 0x79, 0xd0, 0x73, 0x89, 0x73, 0x07, 0x8e, 0x1d, 0x32, 0x0c, 0xd8,
0xba, 0x7a, 0xf2, 0xd3, 0x2d, 0x49, 0xe1, 0xca, 0xfe, 0x30, 0x99, 0x65,
0x17, 0x0e, 0x0c, 0xaf, 0xe7, 0x4e, 0xe9, 0xe3, 0x36, 0xbd, 0x46, 0xd7,
0xda, 0x13, 0xdb, 0x56, 0xa1, 0x2c, 0xeb, 0xd2, 0xb1, 0x53, 0x10, 0xd2,
0xc5, 0x63, 0x81, 0xd9, 0xc6, 0xf5, 0x16, 0x2f, 0x03, 0xcc, 0xc7, 0xd0,
0x49, 0x1f, 0x81, 0x95, 0x6d, 0xe5, 0xa9, 0x0d, 0xa5, 0x3b, 0x60, 0x2b,
0xc1, 0xd9, 0xe1, 0xe4, 0x0f, 0x48, 0xfc, 0x79, 0xae, 0x8d, 0x7f, 0x2d,
0x03, 0xb1, 0x31, 0x63, 0x3d, 0xa4, 0xf2, 0x3c, 0x31, 0xf3, 0x9c, 0x6f,
0x42, 0x8d, 0x12, 0xe3, 0xf9, 0xcc, 0x62, 0x68, 0xf2, 0x4e, 0xf3, 0xc5,
0x29, 0x50, 0xf3, 0xe3, 0xeb, 0xb2, 0x2a, 0x54, 0x8c, 0xed, 0xe1, 0xaf,
0x3a, 0x6f, 0x73, 0x69, 0x17, 0x82, 0xd8, 0x86, 0x2f, 0x05, 0xdf, 0x8e,
0x02, 0x9d, 0xa3, 0x7f, 0xbd, 0xd4, 0x79, 0x29, 0xf2, 0x88, 0xcf, 0x2f,
0x61, 0x28, 0x36, 0x29, 0x3a, 0xf2, 0x79, 0x28, 0xaf, 0xc6, 0x9e, 0x48,
0xdb, 0x04, 0xd6, 0xee, 0x13, 0xa3, 0x2f, 0x59, 0x37, 0x37, 0x72, 0x60,
0x72, 0xa1, 0xff, 0xc1, 0x2d, 0xc4, 0x51, 0x76, 0xb6, 0xfd, 0x8c, 0xf4,
0xc1, 0xdf, 0x94, 0xaf, 0xac, 0x13, 0x0f, 0xa8, 0xab, 0x27, 0x71, 0xdf,
0x17, 0x21, 0x5f, 0x7f, 0x01, 0x8d, 0xb0, 0x1d, 0x5c, 0x98, 0xc2, 0x77,
0x0e, 0xef, 0xbf, 0xe8, 0x4c, 0x16, 0x79, 0x23, 0xd2, 0x21, 0x6e, 0xdf,
0xce, 0xcf, 0xf3, 0xc7, 0xb7, 0x31, 0x27, 0x0c, 0x0a, 0x35, 0x61, 0x4f,
0xea, 0xf3, 0xff, 0xff, 0x04, 0x00, 0x00, 0x00, 0x40, 0x02, 0x00, 0x00,
0x00, 0xfa, 0x81, 0xbc, 0xc7, 0x89, 0x3f, 0x3e, 0xd8, 0x03, 0x5b, 0xbd,
0x06, 0x9d, 0x91, 0x3d, 0x4a, 0x41, 0xc1, 0x3d, 0x2f, 0x77, 0x9d, 0xbd,
0xcb, 0x37, 0x32, 0x3e, 0xd4, 0x5c, 0x3b, 0x3d, 0x1f, 0x6e, 0x33, 0x3e,
0x3a, 0xe2, 0xc4, 0x3d, 0x39, 0x55, 0x15, 0x3e, 0xac, 0x36, 0x63, 0x3d,
0x7b, 0x3d, 0x3e, 0x3e, 0xd4, 0x14, 0x5c, 0x3d, 0x8a, 0x56, 0xa2, 0x3d,
0x05, 0xc8, 0x2c, 0x3e, 0xd2, 0xb9, 0xcb, 0x3d, 0x48, 0x4a, 0xaf, 0x3c,
0xae, 0x18, 0xa9, 0xbd, 0xa2, 0x54, 0xb3, 0x3d, 0x36, 0x0e, 0xce, 0x3d,
0x23, 0xf0, 0x2e, 0xbe, 0x54, 0x02, 0x05, 0x3d, 0xf8, 0x1d, 0x54, 0x3d,
0x04, 0xc9, 0xf1, 0xbd, 0x02, 0xfa, 0xb8, 0x3d, 0x40, 0xe3, 0xd7, 0xbb,
0x44, 0x35, 0x3c, 0xbd, 0x02, 0xde, 0x9e, 0x3d, 0x03, 0x01, 0x3f, 0x3e,
0x71, 0x6e, 0x4a, 0x3e, 0xa0, 0x72, 0xfe, 0xbc, 0x80, 0x10, 0xae, 0x3c,
0xd8, 0x8e, 0x3d, 0xbe, 0xbb, 0xae, 0x00, 0x3e, 0x80, 0xd4, 0xfb, 0xbc,
0x66, 0xe4, 0xb8, 0x3d, 0x40, 0x77, 0xc9, 0x3b, 0x0c, 0xd3, 0x3b, 0xbd,
0x05, 0x82, 0xc0, 0xbd, 0x28, 0x1d, 0xe3, 0x3c, 0xfc, 0x76, 0x31, 0xbd,
0xf0, 0xdc, 0xbf, 0xbd, 0x55, 0x5f, 0x42, 0x3e, 0xa5, 0x6b, 0x17, 0xbe,
0x6e, 0x93, 0xa0, 0x3d, 0x2c, 0xbb, 0x49, 0xbd, 0x22, 0x50, 0xe4, 0x3d,
0x90, 0xe3, 0xd9, 0xbc, 0xac, 0x09, 0x89, 0xbd, 0x5d, 0x50, 0x07, 0x3e,
0x60, 0x3b, 0xc7, 0x3c, 0x50, 0x48, 0x77, 0xbc, 0xf0, 0x10, 0xf1, 0x3c,
0x2c, 0x96, 0x1c, 0x3d, 0x78, 0xfd, 0x5d, 0xbd, 0x62, 0x80, 0xff, 0x3d,
0xe0, 0x99, 0xdd, 0x3b, 0xf1, 0x22, 0x20, 0xbe, 0xe0, 0xb9, 0xad, 0xbc,
0x8c, 0x15, 0x78, 0xbd, 0xec, 0x6b, 0x16, 0xbd, 0xd1, 0xff, 0x37, 0x3e,
0xd4, 0x00, 0x25, 0x3d, 0x70, 0xf6, 0x70, 0xbd, 0xc4, 0x48, 0x12, 0xbd,
0x70, 0x1a, 0x1e, 0x3c, 0x05, 0x20, 0xad, 0xbd, 0x04, 0x56, 0x77, 0x3d,
0x48, 0xbc, 0x0f, 0xbe, 0xa7, 0x25, 0x0e, 0x3e, 0x12, 0x83, 0x9d, 0x3d,
0x0e, 0xd8, 0xe1, 0x3d, 0xa4, 0x0c, 0x20, 0xbe, 0x80, 0xaf, 0x4c, 0xbd,
0xf5, 0x16, 0x11, 0xbe, 0x7c, 0xe9, 0x2a, 0x3d, 0x78, 0xf1, 0xe0, 0xbd,
0xee, 0xea, 0xe7, 0x3d, 0xa9, 0x92, 0x2b, 0xbe, 0x36, 0x15, 0xbc, 0x3d,
0x7e, 0x41, 0xc2, 0xbd, 0xfc, 0x10, 0x2a, 0xbd, 0x13, 0x8a, 0x10, 0x3e,
0x53, 0x3b, 0xf9, 0xbd, 0xad, 0xf0, 0x19, 0x3e, 0x46, 0x3a, 0xa2, 0x3d,
0x80, 0x48, 0x15, 0xbe, 0x15, 0x6e, 0x33, 0x3e, 0xd1, 0x87, 0x39, 0xbe,
0xf6, 0x24, 0xa9, 0x3d, 0xb6, 0x0a, 0x82, 0x3d, 0xec, 0x7c, 0x13, 0xbe,
0x00, 0x03, 0x75, 0x3b, 0x24, 0xb6, 0x07, 0x3d, 0x0c, 0xbb, 0x41, 0x3d,
0xd5, 0x52, 0xed, 0xbd, 0x65, 0xa3, 0x10, 0x3e, 0x50, 0x19, 0xca, 0xbd,
0x49, 0x2b, 0x29, 0x3e, 0xd8, 0x2d, 0xf5, 0xbc, 0x93, 0xa4, 0x02, 0x3e,
0x54, 0x5c, 0x3a, 0xbd, 0x3e, 0x6f, 0x0c, 0xbe, 0xf5, 0x5e, 0x09, 0xbe,
0x15, 0xf7, 0xaf, 0xbd, 0x78, 0x49, 0x74, 0xbd, 0xad, 0x18, 0x24, 0x3e,
0xc0, 0xf0, 0x86, 0xbc, 0x06, 0x88, 0x97, 0x3d, 0x5a, 0xa7, 0x9d, 0xbd,
0x3c, 0x5c, 0x84, 0xbd, 0x38, 0xcf, 0xc7, 0xbc, 0x00, 0x34, 0xa0, 0x39,
0x06, 0xae, 0xbc, 0x3d, 0x5a, 0x21, 0x2c, 0xbe, 0x00, 0x8d, 0xf0, 0x3a,
0x30, 0xf4, 0x3a, 0x3c, 0xe3, 0x7c, 0xd0, 0xbd, 0x7d, 0xb9, 0x0b, 0x3e,
0xb1, 0x7a, 0x1e, 0x3e, 0x3c, 0x04, 0x46, 0xbe, 0xc0, 0x51, 0x73, 0x3b,
0x53, 0x5e, 0xf9, 0xbd, 0xcc, 0x06, 0xca, 0xbd, 0x5b, 0x57, 0x29, 0x3e,
0x64, 0x0b, 0x19, 0xbd, 0xe8, 0x4b, 0x64, 0xbd, 0x31, 0x3b, 0x19, 0x3e,
0x14, 0xf7, 0x3b, 0xbe, 0x73, 0xd6, 0x01, 0x3e, 0xc6, 0x49, 0x48, 0xbe,
0xb9, 0x22, 0x2f, 0x3e, 0x0e, 0x20, 0xa6, 0x3d, 0x60, 0xd1, 0xee, 0xbd,
0x54, 0x2b, 0x66, 0xbd, 0x18, 0xa7, 0xf6, 0x3c, 0x91, 0x89, 0x28, 0xbe,
0x4a, 0xeb, 0xf6, 0x3d, 0xac, 0x42, 0x49, 0xbe, 0x04, 0x66, 0x24, 0x3d,
0xf0, 0x25, 0x03, 0xbc, 0x3c, 0xb7, 0x3c, 0xbd, 0x2f, 0x22, 0x20, 0x3e,
0x36, 0xf6, 0xff, 0xff, 0x04, 0x00, 0x00, 0x00, 0x04, 0x00, 0x00, 0x00,
0x01, 0x00, 0x00, 0x00, 0x46, 0xf6, 0xff, 0xff, 0x04, 0x00, 0x00, 0x00,
0x04, 0x00, 0x00, 0x00, 0x02, 0x00, 0x00, 0x00, 0x56, 0xf6, 0xff, 0xff,
0x04, 0x00, 0x00, 0x00, 0x00, 0x09, 0x00, 0x00, 0xf0, 0xdb, 0xe4, 0x3d,
0x04, 0x7c, 0x2e, 0x3e, 0xd0, 0xac, 0x6a, 0x3d, 0xa2, 0xfb, 0x40, 0xbe,
0x8c, 0xfb, 0xb9, 0x3d, 0x80, 0xa0, 0x57, 0x3c, 0xc0, 0xb2, 0x04, 0x3d,
0x01, 0x04, 0x2a, 0xbe, 0xe0, 0x37, 0xb3, 0xbc, 0x46, 0xc8, 0x3b, 0xbe,
0x5e, 0xce, 0x2e, 0x3e, 0x58, 0x81, 0x35, 0xbd, 0x57, 0x25, 0xfc, 0xbd,
0x44, 0x8d, 0x17, 0xbd, 0x52, 0x2a, 0xb1, 0xbd, 0x70, 0x7d, 0xca, 0x3c,
0x4c, 0x1a, 0x1a, 0xbe, 0x0c, 0xdd, 0x4e, 0xbd, 0x58, 0xf2, 0x84, 0x3c,
0xd4, 0x25, 0x05, 0x3e, 0x0a, 0x87, 0x4a, 0x3e, 0x64, 0x05, 0x33, 0xbd,
0x19, 0x54, 0x3b, 0xbe, 0x64, 0x40, 0x3e, 0xbe, 0x0a, 0x14, 0x1d, 0x3e,
0x62, 0x3e, 0x3d, 0x3e, 0xa1, 0x40, 0xae, 0xbd, 0xed, 0x14, 0x15, 0xbe,
0x35, 0xf3, 0x39, 0xbe, 0x30, 0x9b, 0x4f, 0xbc, 0x8a, 0x33, 0x41, 0x3e,
0x62, 0x6a, 0x0f, 0x3e, 0x58, 0x53, 0x0e, 0x3d, 0x64, 0x56, 0x13, 0x3e,
0x1c, 0xe1, 0xcb, 0x3d, 0xd0, 0xd3, 0xb7, 0x3c, 0xef, 0x25, 0xcc, 0xbd,
0x75, 0xac, 0xc9, 0xbd, 0x79, 0xa1, 0xf3, 0xbd, 0xe8, 0xe3, 0xbf, 0x3c,
0x07, 0xd1, 0xf5, 0xbd, 0x00, 0x77, 0x34, 0x3c, 0x98, 0x52, 0x01, 0x3d,
0x48, 0x99, 0x98, 0xbd, 0x91, 0xc9, 0x39, 0xbe, 0x60, 0x0e, 0x6b, 0xbc,
0xa8, 0xe7, 0x48, 0x3e, 0xb0, 0xc3, 0xdf, 0x3d, 0xac, 0x14, 0xbd, 0x3d,
0xef, 0x57, 0xab, 0xbd, 0xab, 0x66, 0xef, 0xbd, 0xf8, 0x0e, 0x0e, 0x3d,
0xa4, 0xc3, 0xb2, 0x3d, 0x12, 0x41, 0x43, 0x3e, 0x71, 0x12, 0xef, 0xbd,
0xc0, 0x94, 0x13, 0xbc, 0xc7, 0x75, 0x49, 0xbe, 0x46, 0xef, 0x23, 0x3e,
0x83, 0x64, 0xeb, 0xbd, 0x00, 0xcd, 0xd6, 0xbc, 0x00, 0x79, 0xd2, 0x3d,
0x8c, 0xd0, 0x3d, 0x3e, 0x40, 0x8c, 0x48, 0xbe, 0x74, 0xd5, 0x0f, 0xbd,
0xf7, 0x34, 0x4b, 0xbe, 0x10, 0x3a, 0x96, 0xbd, 0xa0, 0x32, 0xbd, 0x3d,
0xf8, 0xcc, 0xeb, 0x3d, 0xba, 0x9b, 0x0b, 0x3e, 0x44, 0xe0, 0x1c, 0x3e,
0xd8, 0x0e, 0x69, 0x3d, 0xbc, 0x44, 0x29, 0x3e, 0xd0, 0x62, 0x60, 0x3c,
0xcc, 0xa9, 0x2d, 0x3e, 0xb2, 0xe2, 0x2b, 0x3e, 0x92, 0x7b, 0x13, 0x3e,
0x02, 0xe4, 0xf6, 0xbd, 0x10, 0xac, 0xf3, 0x3d, 0x36, 0x0a, 0x23, 0x3e,
0x3e, 0xf3, 0x1f, 0xbe, 0xc0, 0x82, 0xa7, 0x3b, 0x77, 0x47, 0x4a, 0xbe,
0x90, 0x04, 0x54, 0xbd, 0x1a, 0x3e, 0x01, 0xbe, 0x3f, 0x79, 0x0a, 0xbe,
0xd0, 0xa5, 0x36, 0x3e, 0x6d, 0x06, 0x4a, 0xbe, 0x00, 0xba, 0x31, 0xba,
0xd0, 0x18, 0x19, 0xbd, 0x37, 0xb9, 0xc0, 0xbd, 0x50, 0x1b, 0x0a, 0x3c,
0x20, 0xa1, 0x42, 0x3e, 0xa0, 0x78, 0x03, 0xbc, 0x6f, 0x29, 0xdc, 0xbd,
0xe4, 0xa7, 0x33, 0x3e, 0x78, 0x6d, 0xa1, 0x3d, 0x1a, 0x76, 0x10, 0x3e,
0x6a, 0xd7, 0x0a, 0x3e, 0xf0, 0xb4, 0x2a, 0x3e, 0x18, 0x3c, 0x47, 0x3e,
0x94, 0x2d, 0x3b, 0xbd, 0xf0, 0x4f, 0x85, 0xbc, 0xce, 0x3f, 0x1b, 0x3e,
0xe0, 0x34, 0xf5, 0x3c, 0x00, 0x19, 0x54, 0xbb, 0x94, 0x3e, 0x49, 0x3e,
0x66, 0x16, 0xdc, 0xbd, 0x68, 0x8b, 0xbb, 0x3d, 0x64, 0x2b, 0x83, 0x3d,
0x90, 0x21, 0x4d, 0xbc, 0xe8, 0xc7, 0xbb, 0x3d, 0x94, 0x46, 0xb5, 0xbd,
0xbd, 0xf0, 0x3b, 0xbe, 0xe8, 0x49, 0x9e, 0x3d, 0x14, 0x14, 0x9b, 0xbd,
0x81, 0x2c, 0xeb, 0xbd, 0x00, 0x27, 0xc7, 0x3d, 0x38, 0x72, 0x3b, 0xbd,
0xb4, 0x23, 0xf6, 0x3d, 0xe0, 0x19, 0x07, 0xbd, 0x8a, 0x70, 0x27, 0xbe,
0xd4, 0xb0, 0x0c, 0x3e, 0x69, 0x0a, 0x17, 0xbe, 0x80, 0xda, 0xbc, 0x3d,
0x7c, 0x10, 0x9a, 0x3d, 0x1e, 0x33, 0x40, 0x3e, 0x72, 0x7a, 0x00, 0xbe,
0x9c, 0x79, 0x07, 0x3e, 0xc8, 0x4c, 0xdb, 0x3c, 0x00, 0x72, 0x14, 0xbd,
0x78, 0x9c, 0x34, 0xbe, 0x7c, 0x36, 0x3d, 0xbe, 0xba, 0x11, 0x9d, 0xbd,
0x68, 0xee, 0xc5, 0x3d, 0xcc, 0xf7, 0x2c, 0x3e, 0x2c, 0xb8, 0xc7, 0x3d,
0x44, 0xa9, 0xee, 0x3d, 0xe8, 0xda, 0x7d, 0xbd, 0xde, 0xcc, 0x90, 0xbd,
0x10, 0x7b, 0xe3, 0x3d, 0x90, 0x25, 0x25, 0x3c, 0x70, 0x89, 0x48, 0x3e,
0x48, 0x6c, 0x72, 0x3d, 0x25, 0xac, 0x43, 0xbe, 0x80, 0x60, 0x22, 0xbd,
0xa8, 0xe5, 0xd8, 0x3c, 0xc8, 0x42, 0x3e, 0xbd, 0x18, 0x3a, 0xf6, 0x3d,
0xf0, 0xd6, 0x49, 0x3c, 0x10, 0xe9, 0x8e, 0x3d, 0xe4, 0xfc, 0xdb, 0x3d,
0x00, 0x4b, 0x86, 0x3b, 0x60, 0xfd, 0x85, 0x3b, 0xf8, 0x98, 0xeb, 0xbc,
0x84, 0xa3, 0x2b, 0xbd, 0xd6, 0xec, 0x9c, 0xbd, 0x76, 0x71, 0xb9, 0xbd,
0x4c, 0xae, 0x5d, 0xbd, 0xb0, 0xd9, 0x71, 0x3c, 0x24, 0xbd, 0x30, 0xbe,
0x78, 0xad, 0x0c, 0x3e, 0xbc, 0x73, 0x4e, 0xbe, 0x50, 0xcf, 0xc9, 0xbc,
0x08, 0x65, 0xfd, 0xbc, 0x60, 0x40, 0xeb, 0x3c, 0x60, 0xf1, 0xf5, 0x3d,
0x70, 0xf6, 0xf5, 0x3d, 0xfa, 0x5f, 0x12, 0x3e, 0x30, 0xc8, 0x4c, 0xbd,
0x8a, 0xe4, 0xd3, 0xbd, 0x40, 0x68, 0x69, 0x3c, 0x60, 0x3b, 0xb5, 0xbc,
0x71, 0xcb, 0x30, 0xbe, 0x6a, 0x4d, 0xff, 0xbd, 0xa0, 0x1e, 0x30, 0xbe,
0xee, 0x44, 0x40, 0x3e, 0x46, 0xaf, 0x21, 0xbe, 0x60, 0xde, 0xa5, 0x3b,
0x44, 0x30, 0x95, 0xbd, 0x08, 0x19, 0x4e, 0x3d, 0x16, 0xe8, 0xe5, 0xbd,
0xfc, 0xef, 0x4e, 0x3e, 0x48, 0x8e, 0x4b, 0x3d, 0x88, 0x96, 0x79, 0x3d,
0xde, 0xa1, 0x00, 0xbe, 0x08, 0x30, 0x61, 0x3d, 0xd6, 0xec, 0x2c, 0x3e,
0x08, 0xa8, 0x01, 0x3e, 0x04, 0x8e, 0x16, 0x3d, 0xc9, 0x8f, 0x47, 0xbe,
0xb8, 0xc2, 0x57, 0xbd, 0x80, 0x79, 0xce, 0x3b, 0xac, 0x2c, 0x0a, 0x3e,
0x72, 0xab, 0x46, 0x3e, 0x9c, 0x7c, 0xde, 0x3d, 0xd3, 0x05, 0x19, 0xbe,
0x08, 0xc2, 0x1b, 0x3e, 0x28, 0xbf, 0x2f, 0x3d, 0xf8, 0x2c, 0x5b, 0x3d,
0xb1, 0x85, 0x36, 0xbe, 0xd5, 0x5b, 0x43, 0xbe, 0xe0, 0xfa, 0xfe, 0xbb,
0x10, 0x72, 0x9c, 0xbc, 0x10, 0xb6, 0x50, 0xbd, 0x8e, 0xee, 0x41, 0xbe,
0xb0, 0xa6, 0x01, 0xbd, 0xf6, 0x4a, 0x1d, 0xbe, 0x07, 0x88, 0x1e, 0xbe,
0x54, 0x08, 0xa0, 0x3d, 0x62, 0x01, 0xa2, 0xbd, 0x02, 0xf7, 0x2b, 0x3e,
0x0a, 0xfa, 0x0d, 0x3e, 0x40, 0xb0, 0xb3, 0x3b, 0x05, 0x71, 0x05, 0xbe,
0x60, 0x3c, 0x30, 0x3e, 0x2e, 0x9a, 0x2c, 0xbe, 0xa9, 0xce, 0xea, 0xbd,
0x18, 0xf1, 0xee, 0xbd, 0x68, 0xd6, 0x2d, 0x3e, 0xd2, 0xc3, 0x27, 0x3e,
0x02, 0x79, 0x20, 0x3e, 0xe0, 0x58, 0x96, 0x3b, 0x7e, 0xc2, 0x20, 0xbe,
0x3b, 0x44, 0xa3, 0xbd, 0x4c, 0x3e, 0xa1, 0x3d, 0x20, 0x31, 0x77, 0xbc,
0x55, 0x8c, 0xef, 0xbd, 0x70, 0xfe, 0x37, 0x3c, 0xd0, 0x2b, 0x4c, 0xbc,
0x70, 0xc1, 0x3f, 0x3e, 0x26, 0x19, 0x1a, 0xbe, 0x0e, 0x28, 0xef, 0xbd,
0x70, 0x23, 0xa4, 0x3d, 0x38, 0x99, 0x25, 0x3e, 0xa8, 0x30, 0x1d, 0x3e,
0x28, 0x89, 0x85, 0x3d, 0x10, 0x94, 0xcf, 0xbc, 0xa0, 0x9c, 0x77, 0x3d,
0x18, 0xd5, 0x86, 0xbc, 0x8c, 0xff, 0xd8, 0xbd, 0x00, 0xb9, 0x7b, 0x3c,
0x1c, 0xdf, 0x28, 0xbe, 0xc0, 0x89, 0xed, 0x3b, 0x20, 0x8e, 0x48, 0x3c,
0x18, 0x84, 0x5b, 0x3d, 0x6c, 0xd2, 0x2e, 0xbd, 0x92, 0x97, 0x42, 0x3e,
0x80, 0x5f, 0x03, 0x3c, 0xcc, 0x20, 0x86, 0x3d, 0x98, 0x26, 0x04, 0x3e,
0xda, 0x64, 0x4c, 0x3e, 0x1a, 0x4a, 0x30, 0xbe, 0x71, 0xf9, 0x31, 0xbe,
0x5a, 0x17, 0x3e, 0x3e, 0xe4, 0xb8, 0xc5, 0x3d, 0xd0, 0x2b, 0x93, 0xbc,
0x8c, 0x14, 0xc4, 0x3d, 0xb4, 0x27, 0x9a, 0x3d, 0x28, 0xbb, 0x8a, 0xbc,
0x80, 0x1b, 0x4a, 0x3e, 0x1c, 0x29, 0xf6, 0x3d, 0x2c, 0x60, 0x35, 0x3d,
0xb0, 0x4c, 0xf2, 0xbd, 0xd8, 0xff, 0x17, 0xbe, 0x8c, 0xd4, 0x2d, 0x3d,
0x84, 0xf6, 0x0d, 0xbd, 0xbc, 0x8d, 0xc9, 0x3d, 0xea, 0xa6, 0x42, 0x3e,
0x58, 0xe2, 0xb7, 0x3d, 0x2a, 0x45, 0x4d, 0x3e, 0x00, 0xf2, 0xdb, 0xb9,
0x77, 0xbc, 0x06, 0xbe, 0x86, 0x5b, 0x93, 0xbd, 0xc0, 0x3d, 0xfc, 0x3c,
0x1c, 0xc6, 0x7e, 0xbd, 0x38, 0x13, 0xfd, 0x3d, 0x36, 0x86, 0x1f, 0x3e,
0x0f, 0x0e, 0xd2, 0xbd, 0x13, 0x50, 0xa2, 0xbd, 0xea, 0xfe, 0x12, 0xbe,
0x69, 0x79, 0xa2, 0xbd, 0xa8, 0x99, 0xa3, 0xbd, 0x40, 0x19, 0x14, 0xbd,
0xe0, 0xa2, 0xa3, 0x3d, 0xad, 0xcf, 0x1e, 0xbe, 0x8c, 0x42, 0x88, 0xbd,
0xd8, 0x48, 0x04, 0x3e, 0x22, 0x2b, 0x1c, 0xbe, 0x00, 0xc7, 0xb4, 0x3d,
0xdd, 0xb6, 0xaf, 0xbd, 0x3c, 0x82, 0x19, 0x3e, 0x20, 0x2f, 0xe4, 0x3c,
0x5b, 0xae, 0xbd, 0xbd, 0x84, 0x2a, 0x7c, 0xbd, 0x48, 0xac, 0xe3, 0xbc,
0xc8, 0x5e, 0x25, 0x3d, 0x42, 0xd7, 0x0e, 0xbe, 0x34, 0xf5, 0x41, 0x3e,
0x48, 0x1f, 0x29, 0xbe, 0xa4, 0x79, 0x18, 0x3d, 0x7a, 0xb7, 0x0f, 0xbe,
0xb1, 0x64, 0x2f, 0xbe, 0x50, 0x8f, 0xd0, 0x3c, 0x98, 0x44, 0xa3, 0x3d,
0xe0, 0x3a, 0x4e, 0x3d, 0x14, 0xc8, 0xa1, 0x3d, 0xb0, 0xbc, 0x64, 0x3c,
0xac, 0x0f, 0x07, 0xbd, 0xc2, 0x61, 0x0b, 0xbe, 0x43, 0xb5, 0xe4, 0xbd,
0xb4, 0xe1, 0x39, 0x3e, 0x27, 0x98, 0x4c, 0xbe, 0x80, 0xc5, 0xaa, 0xbd,
0x28, 0xf5, 0x27, 0xbe, 0x3c, 0xbb, 0xaf, 0x3d, 0xe6, 0x1d, 0x1e, 0x3e,
0x8c, 0x87, 0x2e, 0xbe, 0xd8, 0x47, 0x6e, 0xbd, 0xc0, 0xc9, 0x78, 0x3d,
0xaa, 0x96, 0x39, 0xbe, 0xa3, 0x82, 0x41, 0xbe, 0xb0, 0xc7, 0x36, 0x3e,
0x8c, 0x5d, 0xb3, 0x3d, 0x86, 0x95, 0x36, 0x3e, 0xe0, 0xc5, 0x8d, 0xbc,
0x50, 0x9d, 0x02, 0x3e, 0xd6, 0x2e, 0x0d, 0x3e, 0x0b, 0x94, 0x2d, 0xbe,
0x94, 0x34, 0x4c, 0x3e, 0x50, 0xa4, 0x48, 0x3d, 0xfc, 0xee, 0x4b, 0xbe,
0xf0, 0xd3, 0x92, 0x3d, 0x20, 0x54, 0xd7, 0xbb, 0x51, 0xbf, 0x3b, 0xbe,
0xd8, 0xba, 0x80, 0x3d, 0x15, 0x02, 0x2c, 0xbe, 0x58, 0xa1, 0x02, 0xbe,
0x4d, 0x66, 0xd8, 0xbd, 0x55, 0xd8, 0x09, 0xbe, 0x48, 0xc4, 0x43, 0xbe,
0x27, 0x4e, 0x40, 0xbe, 0x9d, 0x50, 0xc5, 0xbd, 0x02, 0x36, 0x2f, 0x3e,
0xde, 0x50, 0xd8, 0xbd, 0x00, 0xc1, 0x95, 0x3b, 0xe0, 0x82, 0x35, 0xbd,
0x00, 0xf9, 0xfc, 0x3a, 0x48, 0x0c, 0x1a, 0x3d, 0xac, 0xbc, 0xe1, 0xbd,
0x50, 0x14, 0x1f, 0x3e, 0xe0, 0x07, 0xb8, 0xbb, 0x00, 0xf1, 0x46, 0xbe,
0xbc, 0x72, 0x10, 0x3e, 0xf2, 0xc8, 0x12, 0xbe, 0x2c, 0x11, 0x89, 0x3d,
0x0c, 0x0f, 0xf2, 0x3d, 0xa2, 0xa9, 0x1f, 0x3e, 0xfd, 0xda, 0xfa, 0xbd,
0xcc, 0x34, 0x08, 0x3e, 0x56, 0x9b, 0x40, 0xbe, 0x64, 0x72, 0x57, 0xbd,
0xb6, 0x4a, 0x2e, 0x3e, 0xb6, 0x33, 0xd5, 0xbd, 0xc0, 0xf2, 0x34, 0x3e,
0xf8, 0x10, 0x52, 0x3d, 0xfa, 0xb8, 0xc4, 0xbd, 0x39, 0x1a, 0x10, 0xbe,
0x00, 0x2f, 0x72, 0x3d, 0x40, 0x3b, 0xe3, 0x3d, 0x10, 0x1a, 0xa1, 0xbc,
0xc2, 0x89, 0x0e, 0x3e, 0xce, 0xe1, 0xcc, 0xbd, 0x2c, 0x4c, 0x34, 0x3e,
0x88, 0x08, 0xc5, 0xbd, 0xac, 0x93, 0x03, 0xbe, 0x00, 0x58, 0xd2, 0x3a,
0x7c, 0xd4, 0x42, 0x3e, 0xc0, 0xda, 0xa9, 0x3d, 0xf4, 0x25, 0xe0, 0x3d,
0x00, 0x04, 0xa1, 0x3a, 0xae, 0x23, 0x2a, 0xbe, 0xc0, 0x60, 0x59, 0x3d,
0x6e, 0x01, 0xda, 0xbd, 0x08, 0x0e, 0x2d, 0xbd, 0x80, 0x5b, 0x1d, 0x3b,
0xc6, 0x70, 0x34, 0xbe, 0x5a, 0x69, 0x45, 0x3e, 0x86, 0xd0, 0x3d, 0x3e,
0x7a, 0x86, 0x1c, 0x3e, 0xc0, 0x43, 0x8e, 0x3d, 0xc0, 0xdb, 0x2a, 0xbe,
0xd4, 0x21, 0x14, 0xbd, 0x99, 0xf3, 0x24, 0xbe, 0xcc, 0x20, 0x33, 0x3e,
0xf4, 0xc3, 0x26, 0xbe, 0x39, 0xd7, 0xe5, 0xbd, 0x94, 0x98, 0x42, 0x3e,
0xdf, 0x81, 0x2e, 0xbe, 0x42, 0xa3, 0x33, 0x3e, 0xc0, 0xf4, 0x52, 0x3b,
0xa0, 0xce, 0x4c, 0x3e, 0xf4, 0x73, 0x97, 0xbd, 0x30, 0xb4, 0xbf, 0x3d,
0xf8, 0xa9, 0x26, 0xbe, 0x78, 0x43, 0xb5, 0x3d, 0xbc, 0x98, 0xa2, 0x3d,
0xf8, 0x31, 0x3c, 0xbe, 0xe0, 0xeb, 0x10, 0x3d, 0x34, 0x43, 0xed, 0x3d,
0xc0, 0xc7, 0xef, 0x3d, 0xd8, 0xd9, 0xa8, 0xbc, 0x90, 0xc7, 0x0b, 0x3c,
0x28, 0xe3, 0xb1, 0x3d, 0xa8, 0x78, 0x17, 0x3d, 0xf0, 0xd7, 0x52, 0x3d,
0x22, 0xb8, 0x83, 0xbd, 0xd0, 0x0a, 0x30, 0x3e, 0x14, 0x58, 0xc0, 0x3d,
0xfe, 0x2a, 0x05, 0xbe, 0xd4, 0xe6, 0xa8, 0xbd, 0x5a, 0x5c, 0x3c, 0xbe,
0x78, 0x9d, 0xeb, 0x3c, 0x04, 0x67, 0x21, 0xbe, 0x60, 0x76, 0x8f, 0x3b,
0xf8, 0x66, 0x3f, 0xbe, 0xa0, 0x43, 0xb1, 0x3d, 0x80, 0xa9, 0x9b, 0x3d,
0x54, 0xea, 0xee, 0x3d, 0xb0, 0x23, 0x07, 0xbe, 0x83, 0x1d, 0xe7, 0xbd,
0xfc, 0xf5, 0x3a, 0x3e, 0x34, 0x2c, 0xe0, 0x3d, 0xd0, 0xa8, 0x9c, 0x3d,
0x40, 0x42, 0x7a, 0x3d, 0xa7, 0x80, 0xbe, 0xbd, 0x30, 0x12, 0x7a, 0xbd,
0x0f, 0xea, 0x07, 0xbe, 0xc8, 0xa6, 0xa9, 0x3c, 0xa4, 0x6a, 0x28, 0xbd,
0x90, 0x63, 0xba, 0x3c, 0x54, 0xd4, 0xb8, 0x3d, 0x0c, 0x94, 0xe0, 0x3d,
0x53, 0x8f, 0xc7, 0xbd, 0xf7, 0x3c, 0x21, 0xbe, 0xec, 0x02, 0xe0, 0xbd,
0xdc, 0x9c, 0x02, 0x3d, 0x2a, 0x96, 0x07, 0xbe, 0x9c, 0x69, 0xad, 0xbd,
0xb8, 0xe2, 0x69, 0xbd, 0xb0, 0xa1, 0x02, 0x3e, 0xf4, 0xe5, 0x4b, 0xbe,
0xc8, 0xb0, 0x3c, 0x3e, 0x65, 0xcc, 0x16, 0xbe, 0x4c, 0x86, 0xa1, 0x3d,
0x40, 0x1a, 0x9b, 0x3d, 0xe0, 0xf7, 0x81, 0xbb, 0xd8, 0xf9, 0x4f, 0x3d,
0x1c, 0x19, 0xb5, 0xbd, 0x8b, 0xa5, 0xdb, 0xbd, 0x80, 0x8f, 0x94, 0xbc,
0x18, 0x1e, 0xc3, 0x3c, 0x56, 0x12, 0x9f, 0xbd, 0x56, 0x9a, 0x39, 0x3e,
0x00, 0xca, 0x76, 0x3b, 0x54, 0x8a, 0x45, 0xbd, 0x4c, 0x8f, 0xd9, 0x3d,
0x52, 0x15, 0x8d, 0xbd, 0xae, 0x86, 0x1c, 0xbe, 0x61, 0xf5, 0xa6, 0xbd,
0x90, 0xa7, 0xa4, 0x3d, 0x60, 0xd1, 0x30, 0x3e, 0x59, 0xc7, 0x41, 0xbe,
0x18, 0xfc, 0x49, 0xbe, 0xd4, 0x7e, 0x2e, 0x3d, 0xf0, 0x91, 0x45, 0xbd,
0x70, 0xa1, 0x1e, 0x3e, 0x12, 0xec, 0x3a, 0xbe, 0xb0, 0x0e, 0x96, 0x3d,
0x4c, 0xce, 0x92, 0x3d, 0x20, 0x9e, 0xf5, 0x3d, 0x6c, 0x0e, 0x18, 0x3d,
0xdc, 0x44, 0x94, 0x3d, 0xf8, 0xc9, 0x82, 0xbc, 0xc0, 0xd9, 0x45, 0xbb,
0x50, 0x28, 0xd2, 0xbd, 0x11, 0x7a, 0x00, 0xbe, 0xd1, 0x5f, 0x34, 0xbe,
0x7c, 0x3c, 0x45, 0x3e, 0xfc, 0x78, 0x9f, 0x3d, 0x74, 0x90, 0x21, 0x3d,
0xd2, 0xf4, 0x40, 0x3e, 0xeb, 0x6d, 0x1c, 0xbe, 0xa0, 0xfe, 0xc0, 0x3b,
0x60, 0x56, 0x3a, 0xbc, 0xaa, 0x76, 0x27, 0x3e, 0xe6, 0xb1, 0x0c, 0xbe,
0x48, 0x92, 0x82, 0x3d, 0x30, 0xb2, 0xb1, 0x3d, 0x4e, 0x47, 0x4c, 0x3e,
0xec, 0x3c, 0x04, 0xbd, 0x4c, 0xf4, 0x1e, 0x3d, 0x30, 0xa5, 0x90, 0x3d,
0x48, 0x30, 0x56, 0x3d, 0xf8, 0x97, 0xca, 0x3c, 0x6c, 0x81, 0x2b, 0xbd,
0x4e, 0x78, 0x44, 0xbe, 0xa4, 0xdf, 0x09, 0x3e, 0x0b, 0xd8, 0xc7, 0xbd,
0xc4, 0x25, 0x24, 0xbd, 0x98, 0x35, 0x1b, 0x3e, 0x8a, 0x90, 0xdd, 0xbd,
0xa8, 0x09, 0x33, 0x3e, 0xb0, 0x77, 0xcf, 0xbc, 0x08, 0x21, 0xc4, 0x3c,
0x40, 0xb0, 0x75, 0xbb, 0x48, 0x0e, 0x79, 0xbd, 0x1c, 0xfd, 0x50, 0x3e,
0xe0, 0x69, 0x3e, 0xbd, 0xf8, 0xdd, 0xb1, 0x3d, 0x7a, 0x7b, 0x38, 0xbe,
0x5a, 0x84, 0x15, 0x3e, 0x9c, 0xc3, 0x29, 0xbd, 0xa8, 0x08, 0xe3, 0x3d,
0x50, 0xd2, 0x99, 0xbc, 0x60, 0x3a, 0x81, 0x3b, 0x98, 0xfd, 0x08, 0x3d,
0x21, 0x46, 0x40, 0xbe, 0x48, 0x51, 0x32, 0xbe, 0xe0, 0xe3, 0x24, 0x3c,
0x64, 0xbd, 0x24, 0x3e, 0x28, 0xe7, 0x8e, 0x3d, 0xc2, 0x40, 0x36, 0xbe,
0x1c, 0xe5, 0x38, 0x3e, 0x68, 0x72, 0x63, 0x3d, 0x50, 0x96, 0xcb, 0xbc,
0xef, 0xff, 0xa9, 0xbd, 0x70, 0x5a, 0x75, 0x3d, 0x52, 0x17, 0x4e, 0xbe,
0x12, 0xd6, 0x21, 0xbe, 0xd8, 0x09, 0xab, 0xbc, 0x88, 0xb0, 0x51, 0x3d,
0x2a, 0x8b, 0x00, 0x3e, 0x60, 0x39, 0x82, 0x3d, 0x29, 0xf6, 0x44, 0xbe,
0xf4, 0x3a, 0x73, 0xbd, 0x31, 0x9e, 0x2b, 0xbe, 0x80, 0xb3, 0x4a, 0xbe,
0x62, 0xf5, 0x05, 0xbe, 0xc7, 0xdf, 0x42, 0xbe, 0xfc, 0x24, 0x9d, 0x3d,
0x5a, 0x5b, 0x1e, 0x3e, 0x18, 0x2a, 0x02, 0xbe, 0x60, 0x19, 0x05, 0xbd,
0x3d, 0x24, 0xd9, 0xbd, 0x1c, 0x72, 0x02, 0xbe, 0x60, 0xc0, 0x9d, 0xbb,
0x75, 0x8a, 0x3c, 0xbe, 0xc0, 0xf0, 0x21, 0x3d, 0x08, 0xbb, 0x9b, 0x3d,
0x4a, 0xd0, 0xbd, 0xbd, 0xd7, 0x0f, 0xc2, 0xbd, 0xe1, 0x6c, 0xfe, 0xbd,
0x64, 0x0f, 0x06, 0x3e, 0xf0, 0x8e, 0xe1, 0x3c, 0x59, 0xd4, 0x34, 0xbe,
0xcc, 0xfe, 0x4e, 0x3e, 0x58, 0x02, 0xc6, 0xbc, 0x58, 0x18, 0x15, 0x3e,
0x98, 0x7c, 0xaa, 0x3c, 0x2c, 0xdd, 0xa2, 0x3d, 0x98, 0x2d, 0x5d, 0xbd,
0x90, 0x44, 0x0d, 0x3e, 0x8f, 0x98, 0xda, 0xbd, 0xb4, 0x26, 0x2e, 0xbe,
0x4d, 0x06, 0x40, 0xbe, 0x88, 0x6b, 0x41, 0xbe, 0x62, 0xff, 0xff, 0xff,
0x04, 0x00, 0x00, 0x00, 0x08, 0x00, 0x00, 0x00, 0x02, 0x00, 0x00, 0x00,
0x02, 0x00, 0x00, 0x00, 0x76, 0xff, 0xff, 0xff, 0x04, 0x00, 0x00, 0x00,
0x20, 0x00, 0x00, 0x00, 0x00, 0x00, 0x00, 0x00, 0x00, 0x00, 0x00, 0x00,
0x00, 0x00, 0x00, 0x00, 0x00, 0x00, 0x00, 0x00, 0x00, 0x00, 0x00, 0x00,
0x00, 0x00, 0x00, 0x00, 0x00, 0x00, 0x00, 0x00, 0x00, 0x00, 0x00, 0x00,
0xa2, 0xff, 0xff, 0xff, 0x04, 0x00, 0x00, 0x00, 0x40, 0x00, 0x00, 0x00,
0x00, 0x00, 0x00, 0x00, 0x00, 0x00, 0x00, 0x00, 0x00, 0x00, 0x00, 0x00,
0x00, 0x00, 0x00, 0x00, 0x00, 0x00, 0x00, 0x00, 0x00, 0x00, 0x00, 0x00,
0x00, 0x00, 0x00, 0x00, 0x00, 0x00, 0x00, 0x00, 0x00, 0x00, 0x00, 0x00,
0x00, 0x00, 0x00, 0x00, 0x00, 0x00, 0x00, 0x00, 0x00, 0x00, 0x00, 0x00,
0x00, 0x00, 0x00, 0x00, 0x00, 0x00, 0x00, 0x00, 0x00, 0x00, 0x00, 0x00,
0x00, 0x00, 0x00, 0x00, 0xee, 0xff, 0xff, 0xff, 0x04, 0x00, 0x00, 0x00,
0x04, 0x00, 0x00, 0x00, 0x00, 0x00, 0x00, 0x00, 0x00, 0x00, 0x06, 0x00,
0x08, 0x00, 0x04, 0x00, 0x06, 0x00, 0x00, 0x00, 0x04, 0x00, 0x00, 0x00,
0x40, 0x02, 0x00, 0x00, 0x9e, 0x8a, 0x1e, 0xbe, 0x59, 0x34, 0x9d, 0xbd,
0x38, 0xf2, 0x42, 0xbe, 0xd6, 0x26, 0xb2, 0x3d, 0x33, 0xca, 0xe5, 0xbd,
0x6c, 0x29, 0x25, 0xbd, 0x2c, 0xf1, 0x69, 0x3d, 0x50, 0x55, 0x53, 0x3d,
0x78, 0xf8, 0xdb, 0x3c, 0xa8, 0x3d, 0x3f, 0xbe, 0x54, 0xb7, 0x08, 0xbe,
0xef, 0xc9, 0xdf, 0xbd, 0x9d, 0x15, 0x42, 0xbe, 0x53, 0xdb, 0x1d, 0xbe,
0xa0, 0x3e, 0x20, 0x3c, 0x88, 0x32, 0x8f, 0xbc, 0xf2, 0xa9, 0x9a, 0x3d,
0xf4, 0x36, 0x3c, 0x3d, 0xc6, 0x5f, 0xdb, 0x3d, 0xe0, 0x0e, 0x87, 0xbc,
0x6e, 0x9e, 0x8d, 0x3d, 0xa4, 0x03, 0x59, 0x3d, 0x7b, 0x75, 0x45, 0xbe,
0xf0, 0x23, 0x15, 0xbd, 0xed, 0x51, 0x3e, 0x3e, 0x92, 0x0b, 0xf8, 0xbd,
0x07, 0xc1, 0x15, 0x3e, 0xc1, 0xd6, 0xaf, 0xbd, 0x91, 0xd0, 0xd4, 0xbd,
0xe4, 0xf6, 0x1f, 0xbe, 0xe4, 0x4b, 0x8c, 0xbd, 0x17, 0xa1, 0xcb, 0xbd,
0x6a, 0x15, 0xb2, 0x3d, 0xab, 0xba, 0xeb, 0xbd, 0xcc, 0x8c, 0x27, 0x3d,
0x3e, 0x54, 0xac, 0x3d, 0x0c, 0xea, 0x6c, 0xbd, 0x0e, 0x71, 0xf4, 0x3d,
0x80, 0xe8, 0x55, 0x3c, 0x87, 0xfe, 0x3e, 0x3e, 0x10, 0x94, 0x72, 0xbc,
0x64, 0xa1, 0x71, 0x3d, 0xe0, 0xe4, 0xd0, 0x3c, 0xe5, 0xa0, 0x19, 0x3e,
0xe2, 0x40, 0xe9, 0x3d, 0x00, 0x38, 0x0f, 0x3c, 0xcc, 0x51, 0x2b, 0x3d,
0x63, 0xaa, 0xd1, 0xbd, 0xd0, 0x3e, 0x74, 0xbc, 0xa0, 0xa8, 0x92, 0x3c,
0x98, 0x1c, 0x57, 0xbd, 0x80, 0x5f, 0xab, 0x3b, 0xd6, 0x45, 0x8c, 0x3d,
0xea, 0x9e, 0x22, 0xbe, 0x40, 0x58, 0x8b, 0x3c, 0xce, 0xdd, 0xe8, 0x3d,
0x07, 0xcf, 0x46, 0x3e, 0x48, 0xfd, 0x94, 0x3c, 0xf0, 0xad, 0x56, 0x3c,
0x60, 0x95, 0xa8, 0x3c, 0x27, 0xf0, 0x38, 0x3e, 0x6a, 0x1c, 0xdd, 0x3d,
0x48, 0x59, 0x6b, 0xbd, 0xc6, 0x00, 0xff, 0x3d, 0x7e, 0x3e, 0x41, 0xbe,
0x68, 0x30, 0x5e, 0xbd, 0x78, 0x9b, 0x55, 0xbd, 0x48, 0x7f, 0xa8, 0x3c,
0x58, 0xa2, 0x95, 0xbc, 0xe0, 0x08, 0x41, 0xbe, 0xca, 0xa6, 0x10, 0xbe,
0xfa, 0xe8, 0xdd, 0x3d, 0x15, 0x07, 0xbc, 0xbd, 0x00, 0x62, 0xd4, 0x3c,
0xb6, 0x36, 0x85, 0xbd, 0xed, 0x60, 0x2e, 0xbe, 0x52, 0x3d, 0xd9, 0x3d,
0x58, 0xc1, 0xb2, 0x3c, 0x80, 0x64, 0x74, 0xbd, 0xe8, 0x5c, 0x89, 0xbc,
0xa7, 0x8d, 0x07, 0x3e, 0xf6, 0x85, 0xe9, 0x3d, 0xb8, 0xca, 0x34, 0xbd,
0x42, 0xc5, 0x82, 0xbd, 0x0c, 0x2b, 0x65, 0x3d, 0x7a, 0x9c, 0xbf, 0xbd,
0x38, 0x14, 0xdf, 0xbd, 0xaa, 0x55, 0x93, 0xbd, 0xba, 0x0c, 0x90, 0x3d,
0x70, 0xc6, 0x52, 0x3d, 0xac, 0xeb, 0x9c, 0xbd, 0x1c, 0xa7, 0x7b, 0xbd,
0xb6, 0xc6, 0xdc, 0xbd, 0xbe, 0xe0, 0xed, 0x3d, 0xf8, 0x01, 0x8c, 0xbc,
0xbb, 0xe7, 0x0d, 0x3e, 0x39, 0x12, 0x33, 0xbe, 0x0a, 0xcf, 0xa8, 0xbd,
0xfa, 0x37, 0xc0, 0x3d, 0xc6, 0xa7, 0x8c, 0x3d, 0x04, 0xc5, 0x57, 0xbd,
0x7a, 0xca, 0x05, 0xbe, 0x0f, 0xb2, 0x34, 0xbe, 0x8f, 0x5a, 0x1a, 0xbe,
0xbd, 0x4c, 0xeb, 0xbd, 0xa8, 0xb1, 0x44, 0x3d, 0xf0, 0x9c, 0xfd, 0xbd,
0x5a, 0x6c, 0xad, 0x3d, 0x60, 0x91, 0xad, 0x3c, 0x50, 0x1e, 0x64, 0xbc,
0x26, 0xb8, 0xa3, 0x3d, 0x7e, 0xc9, 0x19, 0xbe, 0xd7, 0x51, 0x39, 0x3e,
0xb4, 0xe7, 0x18, 0xbd, 0xa9, 0x43, 0x3e, 0x3e, 0x62, 0x1c, 0x1c, 0xbe,
0xd0, 0x2a, 0xd7, 0xbc, 0xfc, 0x6f, 0x3f, 0xbe, 0x88, 0x7a, 0xa6, 0xbc,
0x26, 0x98, 0x32, 0xbe, 0x90, 0x64, 0xa8, 0x3c, 0xd3, 0x86, 0x3e, 0x3e,
0xad, 0x4a, 0xd5, 0xbd, 0xe6, 0x23, 0x9f, 0x3d, 0xdf, 0x0c, 0x0b, 0x3e,
0x20, 0x6f, 0xa4, 0xbc, 0xb8, 0x3f, 0x86, 0x3c, 0x5b, 0x6b, 0x1b, 0x3e,
0x88, 0xb1, 0x85, 0x3c, 0x5f, 0x6b, 0x13, 0x3e, 0xc9, 0xd2, 0x3f, 0x3e,
0x4c, 0x9e, 0x43, 0xbd, 0xfa, 0x41, 0x8e, 0x3d, 0x04, 0x97, 0x30, 0xbd,
0x7b, 0x43, 0x04, 0xbe, 0xc9, 0x96, 0x40, 0xbe, 0x72, 0x94, 0xa1, 0x3d,
0x23, 0x0a, 0x2e, 0xbe, 0x41, 0x30, 0x43, 0xbe, 0xc0, 0xb0, 0x4f, 0xbc,
0x98, 0x1d, 0xef, 0xbc, 0x9d, 0x75, 0x02, 0xbe, 0x60, 0xc2, 0xc0, 0xbc,
0x38, 0xf7, 0x0d, 0x3d, 0x24, 0xf0, 0xff, 0xff, 0x28, 0xf0, 0xff, 0xff,
0x0f, 0x00, 0x00, 0x00, 0x4d, 0x4c, 0x49, 0x52, 0x20, 0x43, 0x6f, 0x6e,
0x76, 0x65, 0x72, 0x74, 0x65, 0x64, 0x2e, 0x00, 0x01, 0x00, 0x00, 0x00,
0x14, 0x00, 0x00, 0x00, 0x00, 0x00, 0x0e, 0x00, 0x18, 0x00, 0x14, 0x00,
0x10, 0x00, 0x0c, 0x00, 0x08, 0x00, 0x04, 0x00, 0x0e, 0x00, 0x00, 0x00,
0x14, 0x00, 0x00, 0x00, 0x1c, 0x00, 0x00, 0x00, 0x00, 0x04, 0x00, 0x00,
0x04, 0x04, 0x00, 0x00, 0x08, 0x04, 0x00, 0x00, 0x04, 0x00, 0x00, 0x00,
0x6d, 0x61, 0x69, 0x6e, 0x00, 0x00, 0x00, 0x00, 0x10, 0x00, 0x00, 0x00,
0x9c, 0x03, 0x00, 0x00, 0x38, 0x03, 0x00, 0x00, 0xe8, 0x02, 0x00, 0x00,
0xa4, 0x02, 0x00, 0x00, 0x64, 0x02, 0x00, 0x00, 0x28, 0x02, 0x00, 0x00,
0xfc, 0x01, 0x00, 0x00, 0xbc, 0x01, 0x00, 0x00, 0x7c, 0x01, 0x00, 0x00,
0x3c, 0x01, 0x00, 0x00, 0x08, 0x01, 0x00, 0x00, 0xdc, 0x00, 0x00, 0x00,
0xa8, 0x00, 0x00, 0x00, 0x70, 0x00, 0x00, 0x00, 0x28, 0x00, 0x00, 0x00,
0x04, 0x00, 0x00, 0x00, 0x36, 0xfe, 0xff, 0xff, 0x0c, 0x00, 0x00, 0x00,
0x10, 0x00, 0x00, 0x00, 0x06, 0x00, 0x00, 0x00, 0x01, 0x00, 0x00, 0x00,
0x1b, 0x00, 0x00, 0x00, 0x01, 0x00, 0x00, 0x00, 0x1a, 0x00, 0x00, 0x00,
0xd2, 0xfc, 0xff, 0xff, 0x1c, 0x00, 0x00, 0x00, 0x00, 0x00, 0x00, 0x01,
0x20, 0x00, 0x00, 0x00, 0x24, 0x00, 0x00, 0x00, 0x00, 0x00, 0x0a, 0x00,
0x0c, 0x00, 0x00, 0x00, 0x08, 0x00, 0x04, 0x00, 0x0a, 0x00, 0x00, 0x00,
0x01, 0x00, 0x00, 0x00, 0x01, 0x00, 0x00, 0x00, 0x01, 0x00, 0x00, 0x00,
0x1a, 0x00, 0x00, 0x00, 0x03, 0x00, 0x00, 0x00, 0x19, 0x00, 0x00, 0x00,
0x09, 0x00, 0x00, 0x00, 0x02, 0x00, 0x00, 0x00, 0x76, 0xfd, 0xff, 0xff,
0x14, 0x00, 0x00, 0x00, 0x00, 0x00, 0x00, 0x4a, 0x14, 0x00, 0x00, 0x00,
0x18, 0x00, 0x00, 0x00, 0x05, 0x00, 0x00, 0x00, 0x08, 0xff, 0xff, 0xff,
0x00, 0x00, 0x00, 0x01, 0x01, 0x00, 0x00, 0x00, 0x19, 0x00, 0x00, 0x00,
0x02, 0x00, 0x00, 0x00, 0x15, 0x00, 0x00, 0x00, 0x18, 0x00, 0x00, 0x00,
0xaa, 0xfd, 0xff, 0xff, 0x14, 0x00, 0x00, 0x00, 0x00, 0x00, 0x00, 0x15,
0x10, 0x00, 0x00, 0x00, 0x14, 0x00, 0x00, 0x00, 0x04, 0x00, 0x00, 0x00,
0x70, 0xf1, 0xff, 0xff, 0x01, 0x00, 0x00, 0x00, 0x18, 0x00, 0x00, 0x00,
0x02, 0x00, 0x00, 0x00, 0x17, 0x00, 0x00, 0x00, 0x05, 0x00, 0x00, 0x00,
0xfe, 0xfe, 0xff, 0xff, 0x0c, 0x00, 0x00, 0x00, 0x10, 0x00, 0x00, 0x00,
0x03, 0x00, 0x00, 0x00, 0x01, 0x00, 0x00, 0x00, 0x17, 0x00, 0x00, 0x00,
0x03, 0x00, 0x00, 0x00, 0x16, 0x00, 0x00, 0x00, 0x08, 0x00, 0x00, 0x00,
0x07, 0x00, 0x00, 0x00, 0x02, 0xfe, 0xff, 0xff, 0x14, 0x00, 0x00, 0x00,
0x00, 0x00, 0x00, 0x37, 0x14, 0x00, 0x00, 0x00, 0x18, 0x00, 0x00, 0x00,
0x02, 0x00, 0x00, 0x00, 0xf2, 0xfe, 0xff, 0xff, 0x00, 0x00, 0x00, 0x02,
0x01, 0x00, 0x00, 0x00, 0x16, 0x00, 0x00, 0x00, 0x01, 0x00, 0x00, 0x00,
0x15, 0x00, 0x00, 0x00, 0xd2, 0xfd, 0xff, 0xff, 0x10, 0x00, 0x00, 0x00,
0x00, 0x00, 0x00, 0x01, 0x18, 0x00, 0x00, 0x00, 0x1c, 0x00, 0x00, 0x00,
0xc4, 0xfd, 0xff, 0xff, 0x00, 0x00, 0x00, 0x01, 0x01, 0x00, 0x00, 0x00,
0x01, 0x00, 0x00, 0x00, 0x01, 0x00, 0x00, 0x00, 0x15, 0x00, 0x00, 0x00,
0x03, 0x00, 0x00, 0x00, 0x14, 0x00, 0x00, 0x00, 0x0a, 0x00, 0x00, 0x00,
0x03, 0x00, 0x00, 0x00, 0x6e, 0xfe, 0xff, 0xff, 0x1c, 0x00, 0x00, 0x00,
0x00, 0x00, 0x00, 0x4a, 0x1c, 0x00, 0x00, 0x00, 0x20, 0x00, 0x00, 0x00,
0x05, 0x00, 0x00, 0x00, 0x08, 0x00, 0x08, 0x00, 0x00, 0x00, 0x07, 0x00,
0x08, 0x00, 0x00, 0x00, 0x00, 0x00, 0x00, 0x01, 0x01, 0x00, 0x00, 0x00,
0x14, 0x00, 0x00, 0x00, 0x02, 0x00, 0x00, 0x00, 0x10, 0x00, 0x00, 0x00,
0x13, 0x00, 0x00, 0x00, 0xaa, 0xfe, 0xff, 0xff, 0x14, 0x00, 0x00, 0x00,
0x00, 0x00, 0x00, 0x15, 0x10, 0x00, 0x00, 0x00, 0x14, 0x00, 0x00, 0x00,
0x04, 0x00, 0x00, 0x00, 0x70, 0xf2, 0xff, 0xff, 0x01, 0x00, 0x00, 0x00,
0x13, 0x00, 0x00, 0x00, 0x02, 0x00, 0x00, 0x00, 0x12, 0x00, 0x00, 0x00,
0x05, 0x00, 0x00, 0x00, 0x00, 0x00, 0x0a, 0x00, 0x10, 0x00, 0x0c, 0x00,
0x08, 0x00, 0x04, 0x00, 0x0a, 0x00, 0x00, 0x00, 0x0c, 0x00, 0x00, 0x00,
0x10, 0x00, 0x00, 0x00, 0x03, 0x00, 0x00, 0x00, 0x01, 0x00, 0x00, 0x00,
0x12, 0x00, 0x00, 0x00, 0x03, 0x00, 0x00, 0x00, 0x11, 0x00, 0x00, 0x00,
0x08, 0x00, 0x00, 0x00, 0x07, 0x00, 0x00, 0x00, 0x0e, 0xff, 0xff, 0xff,
0x1c, 0x00, 0x00, 0x00, 0x00, 0x00, 0x00, 0x37, 0x1c, 0x00, 0x00, 0x00,
0x20, 0x00, 0x00, 0x00, 0x02, 0x00, 0x00, 0x00, 0x00, 0x00, 0x06, 0x00,
0x08, 0x00, 0x07, 0x00, 0x06, 0x00, 0x00, 0x00, 0x00, 0x00, 0x00, 0x02,
0x01, 0x00, 0x00, 0x00, 0x11, 0x00, 0x00, 0x00, 0x01, 0x00, 0x00, 0x00,
0x10, 0x00, 0x00, 0x00, 0xe6, 0xfe, 0xff, 0xff, 0x10, 0x00, 0x00, 0x00,
0x00, 0x00, 0x00, 0x01, 0x18, 0x00, 0x00, 0x00, 0x1c, 0x00, 0x00, 0x00,
0xd8, 0xfe, 0xff, 0xff, 0x00, 0x00, 0x00, 0x01, 0x01, 0x00, 0x00, 0x00,
0x01, 0x00, 0x00, 0x00, 0x01, 0x00, 0x00, 0x00, 0x10, 0x00, 0x00, 0x00,
0x03, 0x00, 0x00, 0x00, 0x0f, 0x00, 0x00, 0x00, 0x06, 0x00, 0x00, 0x00,
0x04, 0x00, 0x00, 0x00, 0x82, 0xff, 0xff, 0xff, 0x14, 0x00, 0x00, 0x00,
0x00, 0x00, 0x00, 0x05, 0x24, 0x00, 0x00, 0x00, 0x28, 0x00, 0x00, 0x00,
0x01, 0x00, 0x00, 0x00, 0x72, 0xff, 0xff, 0xff, 0x02, 0x00, 0x00, 0x00,
0x02, 0x00, 0x00, 0x00, 0x02, 0x00, 0x00, 0x00, 0x02, 0x00, 0x00, 0x00,
0x00, 0x00, 0x00, 0x01, 0x01, 0x00, 0x00, 0x00, 0x0f, 0x00, 0x00, 0x00,
0x01, 0x00, 0x00, 0x00, 0x0e, 0x00, 0x00, 0x00, 0x62, 0xff, 0xff, 0xff,
0x10, 0x00, 0x00, 0x00, 0x00, 0x00, 0x00, 0x01, 0x18, 0x00, 0x00, 0x00,
0x1c, 0x00, 0x00, 0x00, 0x54, 0xff, 0xff, 0xff, 0x00, 0x00, 0x00, 0x01,
0x01, 0x00, 0x00, 0x00, 0x01, 0x00, 0x00, 0x00, 0x01, 0x00, 0x00, 0x00,
0x0e, 0x00, 0x00, 0x00, 0x03, 0x00, 0x00, 0x00, 0x0d, 0x00, 0x00, 0x00,
0x0b, 0x00, 0x00, 0x00, 0x04, 0x00, 0x00, 0x00, 0x00, 0x00, 0x0e, 0x00,
0x1a, 0x00, 0x14, 0x00, 0x10, 0x00, 0x0c, 0x00, 0x0b, 0x00, 0x04, 0x00,
0x0e, 0x00, 0x00, 0x00, 0x24, 0x00, 0x00, 0x00, 0x00, 0x00, 0x00, 0x05,
0x34, 0x00, 0x00, 0x00, 0x38, 0x00, 0x00, 0x00, 0x01, 0x00, 0x00, 0x00,
0x00, 0x00, 0x0e, 0x00, 0x18, 0x00, 0x17, 0x00, 0x10, 0x00, 0x0c, 0x00,
0x08, 0x00, 0x04, 0x00, 0x0e, 0x00, 0x00, 0x00, 0x02, 0x00, 0x00, 0x00,
0x02, 0x00, 0x00, 0x00, 0x02, 0x00, 0x00, 0x00, 0x02, 0x00, 0x00, 0x00,
0x00, 0x00, 0x00, 0x01, 0x01, 0x00, 0x00, 0x00, 0x0d, 0x00, 0x00, 0x00,
0x01, 0x00, 0x00, 0x00, 0x0c, 0x00, 0x00, 0x00, 0x00, 0x00, 0x0e, 0x00,
0x14, 0x00, 0x00, 0x00, 0x10, 0x00, 0x0c, 0x00, 0x0b, 0x00, 0x04, 0x00,
0x0e, 0x00, 0x00, 0x00, 0x1c, 0x00, 0x00, 0x00, 0x00, 0x00, 0x00, 0x01,
0x24, 0x00, 0x00, 0x00, 0x28, 0x00, 0x00, 0x00, 0x0c, 0x00, 0x10, 0x00,
0x00, 0x00, 0x0c, 0x00, 0x08, 0x00, 0x07, 0x00, 0x0c, 0x00, 0x00, 0x00,
0x00, 0x00, 0x00, 0x01, 0x01, 0x00, 0x00, 0x00, 0x01, 0x00, 0x00, 0x00,
0x01, 0x00, 0x00, 0x00, 0x0c, 0x00, 0x00, 0x00, 0x03, 0x00, 0x00, 0x00,
0x00, 0x00, 0x00, 0x00, 0x01, 0x00, 0x00, 0x00, 0x03, 0x00, 0x00, 0x00,
0x01, 0x00, 0x00, 0x00, 0x1b, 0x00, 0x00, 0x00, 0x01, 0x00, 0x00, 0x00,
0x00, 0x00, 0x00, 0x00, 0x1c, 0x00, 0x00, 0x00, 0x58, 0x0b, 0x00, 0x00,
0xf8, 0x0a, 0x00, 0x00, 0xa4, 0x0a, 0x00, 0x00, 0x68, 0x0a, 0x00, 0x00,
0x2c, 0x0a, 0x00, 0x00, 0xec, 0x09, 0x00, 0x00, 0x8c, 0x09, 0x00, 0x00,
0x4c, 0x09, 0x00, 0x00, 0x0c, 0x09, 0x00, 0x00, 0xc4, 0x08, 0x00, 0x00,
0x98, 0x07, 0x00, 0x00, 0xd8, 0x06, 0x00, 0x00, 0x58, 0x06, 0x00, 0x00,
0xe4, 0x05, 0x00, 0x00, 0x60, 0x05, 0x00, 0x00, 0xec, 0x04, 0x00, 0x00,
0x68, 0x04, 0x00, 0x00, 0x18, 0x04, 0x00, 0x00, 0xc0, 0x03, 0x00, 0x00,
0x70, 0x03, 0x00, 0x00, 0xe8, 0x02, 0x00, 0x00, 0x64, 0x02, 0x00, 0x00,
0x10, 0x02, 0x00, 0x00, 0xb4, 0x01, 0x00, 0x00, 0x64, 0x01, 0x00, 0x00,
0xdc, 0x00, 0x00, 0x00, 0x70, 0x00, 0x00, 0x00, 0x04, 0x00, 0x00, 0x00,
0x2e, 0xf5, 0xff, 0xff, 0x00, 0x00, 0x00, 0x01, 0x14, 0x00, 0x00, 0x00,
0x24, 0x00, 0x00, 0x00, 0x24, 0x00, 0x00, 0x00, 0x1c, 0x00, 0x00, 0x00,
0x3c, 0x00, 0x00, 0x00, 0x04, 0x00, 0x00, 0x00, 0xff, 0xff, 0xff, 0xff,
0xff, 0xff, 0xff, 0xff, 0xff, 0xff, 0xff, 0xff, 0x01, 0x00, 0x00, 0x00,
0x18, 0xf5, 0xff, 0xff, 0x19, 0x00, 0x00, 0x00, 0x53, 0x74, 0x61, 0x74,
0x65, 0x66, 0x75, 0x6c, 0x50, 0x61, 0x72, 0x74, 0x69, 0x74, 0x69, 0x6f,
0x6e, 0x65, 0x64, 0x43, 0x61, 0x6c, 0x6c, 0x3a, 0x30, 0x00, 0x00, 0x00,
0x04, 0x00, 0x00, 0x00, 0x01, 0x00, 0x00, 0x00, 0x01, 0x00, 0x00, 0x00,
0x01, 0x00, 0x00, 0x00, 0x01, 0x00, 0x00, 0x00, 0x96, 0xf5, 0xff, 0xff,
0x00, 0x00, 0x00, 0x01, 0x14, 0x00, 0x00, 0x00, 0x24, 0x00, 0x00, 0x00,
0x24, 0x00, 0x00, 0x00, 0x1b, 0x00, 0x00, 0x00, 0x3c, 0x00, 0x00, 0x00,
0x04, 0x00, 0x00, 0x00, 0xff, 0xff, 0xff, 0xff, 0xff, 0xff, 0xff, 0xff,
0xff, 0xff, 0xff, 0xff, 0x01, 0x00, 0x00, 0x00, 0x80, 0xf5, 0xff, 0xff,
0x1a, 0x00, 0x00, 0x00, 0x73, 0x65, 0x71, 0x75, 0x65, 0x6e, 0x74, 0x69,
0x61, 0x6c, 0x2f, 0x63, 0x6f, 0x6e, 0x76, 0x32, 0x64, 0x5f, 0x34, 0x2f,
0x43, 0x6f, 0x6e, 0x76, 0x32, 0x44, 0x00, 0x00, 0x04, 0x00, 0x00, 0x00,
0x01, 0x00, 0x00, 0x00, 0x01, 0x00, 0x00, 0x00, 0x01, 0x00, 0x00, 0x00,
0x01, 0x00, 0x00, 0x00, 0xfe, 0xf5, 0xff, 0xff, 0x00, 0x00, 0x00, 0x01,
0x14, 0x00, 0x00, 0x00, 0x24, 0x00, 0x00, 0x00, 0x24, 0x00, 0x00, 0x00,
0x1a, 0x00, 0x00, 0x00, 0x58, 0x00, 0x00, 0x00, 0x04, 0x00, 0x00, 0x00,
0xff, 0xff, 0xff, 0xff, 0xff, 0xff, 0xff, 0xff, 0xff, 0xff, 0xff, 0xff,
0x10, 0x00, 0x00, 0x00, 0xe8, 0xf5, 0xff, 0xff, 0x37, 0x00, 0x00, 0x00,
0x73, 0x65, 0x71, 0x75, 0x65, 0x6e, 0x74, 0x69, 0x61, 0x6c, 0x2f, 0x75,
0x70, 0x5f, 0x73, 0x61, 0x6d, 0x70, 0x6c, 0x69, 0x6e, 0x67, 0x32, 0x64,
0x5f, 0x31, 0x2f, 0x72, 0x65, 0x73, 0x69, 0x7a, 0x65, 0x2f, 0x52, 0x65,
0x73, 0x69, 0x7a, 0x65, 0x4e, 0x65, 0x61, 0x72, 0x65, 0x73, 0x74, 0x4e,
0x65, 0x69, 0x67, 0x68, 0x62, 0x6f, 0x72, 0x00, 0x04, 0x00, 0x00, 0x00,
0x01, 0x00, 0x00, 0x00, 0x01, 0x00, 0x00, 0x00, 0x01, 0x00, 0x00, 0x00,
0x10, 0x00, 0x00, 0x00, 0xda, 0xf7, 0xff, 0xff, 0x00, 0x00, 0x00, 0x01,
0x14, 0x00, 0x00, 0x00, 0x14, 0x00, 0x00, 0x00, 0x19, 0x00, 0x00, 0x00,
0x00, 0x00, 0x00, 0x02, 0x2c, 0x00, 0x00, 0x00, 0x58, 0xf6, 0xff, 0xff,
0x1e, 0x00, 0x00, 0x00, 0x73, 0x65, 0x71, 0x75, 0x65, 0x6e, 0x74, 0x69,
0x61, 0x6c, 0x2f, 0x75, 0x70, 0x5f, 0x73, 0x61, 0x6d, 0x70, 0x6c, 0x69,
0x6e, 0x67, 0x32, 0x64, 0x5f, 0x31, 0x2f, 0x6d, 0x75, 0x6c, 0x00, 0x00,
0x01, 0x00, 0x00, 0x00, 0x02, 0x00, 0x00, 0x00, 0x26, 0xf8, 0xff, 0xff,
0x00, 0x00, 0x00, 0x01, 0x14, 0x00, 0x00, 0x00, 0x14, 0x00, 0x00, 0x00,
0x18, 0x00, 0x00, 0x00, 0x00, 0x00, 0x00, 0x02, 0x38, 0x00, 0x00, 0x00,
0xa4, 0xf6, 0xff, 0xff, 0x29, 0x00, 0x00, 0x00, 0x73, 0x65, 0x71, 0x75,
0x65, 0x6e, 0x74, 0x69, 0x61, 0x6c, 0x2f, 0x75, 0x70, 0x5f, 0x73, 0x61,
0x6d, 0x70, 0x6c, 0x69, 0x6e, 0x67, 0x32, 0x64, 0x5f, 0x31, 0x2f, 0x73,
0x74, 0x72, 0x69, 0x64, 0x65, 0x64, 0x5f, 0x73, 0x6c, 0x69, 0x63, 0x65,
0x3b, 0x00, 0x00, 0x00, 0x01, 0x00, 0x00, 0x00, 0x02, 0x00, 0x00, 0x00,
0x7e, 0xf8, 0xff, 0xff, 0x00, 0x00, 0x00, 0x01, 0x14, 0x00, 0x00, 0x00,
0x14, 0x00, 0x00, 0x00, 0x17, 0x00, 0x00, 0x00, 0x00, 0x00, 0x00, 0x02,
0x30, 0x00, 0x00, 0x00, 0xfc, 0xf6, 0xff, 0xff, 0x20, 0x00, 0x00, 0x00,
0x73, 0x65, 0x71, 0x75, 0x65, 0x6e, 0x74, 0x69, 0x61, 0x6c, 0x2f, 0x75,
0x70, 0x5f, 0x73, 0x61, 0x6d, 0x70, 0x6c, 0x69, 0x6e, 0x67, 0x32, 0x64,
0x5f, 0x31, 0x2f, 0x53, 0x68, 0x61, 0x70, 0x65, 0x00, 0x00, 0x00, 0x00,
0x01, 0x00, 0x00, 0x00, 0x04, 0x00, 0x00, 0x00, 0x76, 0xf7, 0xff, 0xff,
0x00, 0x00, 0x00, 0x01, 0x14, 0x00, 0x00, 0x00, 0x24, 0x00, 0x00, 0x00,
0x24, 0x00, 0x00, 0x00, 0x16, 0x00, 0x00, 0x00, 0x54, 0x00, 0x00, 0x00,
0x04, 0x00, 0x00, 0x00, 0xff, 0xff, 0xff, 0xff, 0xff, 0xff, 0xff, 0xff,
0xff, 0xff, 0xff, 0xff, 0x10, 0x00, 0x00, 0x00, 0x60, 0xf7, 0xff, 0xff,
0x33, 0x00, 0x00, 0x00, 0x73, 0x65, 0x71, 0x75, 0x65, 0x6e, 0x74, 0x69,
0x61, 0x6c, 0x2f, 0x63, 0x6f, 0x6e, 0x76, 0x32, 0x64, 0x5f, 0x33, 0x2f,
0x52, 0x65, 0x6c, 0x75, 0x3b, 0x73, 0x65, 0x71, 0x75, 0x65, 0x6e, 0x74,
0x69, 0x61, 0x6c, 0x2f, 0x63, 0x6f, 0x6e, 0x76, 0x32, 0x64, 0x5f, 0x33,
0x2f, 0x43, 0x6f, 0x6e, 0x76, 0x32, 0x44, 0x00, 0x04, 0x00, 0x00, 0x00,
0x01, 0x00, 0x00, 0x00, 0x01, 0x00, 0x00, 0x00, 0x01, 0x00, 0x00, 0x00,
0x10, 0x00, 0x00, 0x00, 0xf6, 0xf7, 0xff, 0xff, 0x00, 0x00, 0x00, 0x01,
0x14, 0x00, 0x00, 0x00, 0x24, 0x00, 0x00, 0x00, 0x24, 0x00, 0x00, 0x00,
0x15, 0x00, 0x00, 0x00, 0x58, 0x00, 0x00, 0x00, 0x04, 0x00, 0x00, 0x00,
0xff, 0xff, 0xff, 0xff, 0xff, 0xff, 0xff, 0xff, 0xff, 0xff, 0xff, 0xff,
0x08, 0x00, 0x00, 0x00, 0xe0, 0xf7, 0xff, 0xff, 0x35, 0x00, 0x00, 0x00,
0x73, 0x65, 0x71, 0x75, 0x65, 0x6e, 0x74, 0x69, 0x61, 0x6c, 0x2f, 0x75,
0x70, 0x5f, 0x73, 0x61, 0x6d, 0x70, 0x6c, 0x69, 0x6e, 0x67, 0x32, 0x64,
0x2f, 0x72, 0x65, 0x73, 0x69, 0x7a, 0x65, 0x2f, 0x52, 0x65, 0x73, 0x69,
0x7a, 0x65, 0x4e, 0x65, 0x61, 0x72, 0x65, 0x73, 0x74, 0x4e, 0x65, 0x69,
0x67, 0x68, 0x62, 0x6f, 0x72, 0x00, 0x00, 0x00, 0x04, 0x00, 0x00, 0x00,
0x01, 0x00, 0x00, 0x00, 0x01, 0x00, 0x00, 0x00, 0x01, 0x00, 0x00, 0x00,
0x08, 0x00, 0x00, 0x00, 0xd2, 0xf9, 0xff, 0xff, 0x00, 0x00, 0x00, 0x01,
0x14, 0x00, 0x00, 0x00, 0x14, 0x00, 0x00, 0x00, 0x14, 0x00, 0x00, 0x00,
0x00, 0x00, 0x00, 0x02, 0x2c, 0x00, 0x00, 0x00, 0x50, 0xf8, 0xff, 0xff,
0x1c, 0x00, 0x00, 0x00, 0x73, 0x65, 0x71, 0x75, 0x65, 0x6e, 0x74, 0x69,
0x61, 0x6c, 0x2f, 0x75, 0x70, 0x5f, 0x73, 0x61, 0x6d, 0x70, 0x6c, 0x69,
0x6e, 0x67, 0x32, 0x64, 0x2f, 0x6d, 0x75, 0x6c, 0x00, 0x00, 0x00, 0x00,
0x01, 0x00, 0x00, 0x00, 0x02, 0x00, 0x00, 0x00, 0x1e, 0xfa, 0xff, 0xff,
0x00, 0x00, 0x00, 0x01, 0x14, 0x00, 0x00, 0x00, 0x14, 0x00, 0x00, 0x00,
0x13, 0x00, 0x00, 0x00, 0x00, 0x00, 0x00, 0x02, 0x34, 0x00, 0x00, 0x00,
0x9c, 0xf8, 0xff, 0xff, 0x27, 0x00, 0x00, 0x00, 0x73, 0x65, 0x71, 0x75,
0x65, 0x6e, 0x74, 0x69, 0x61, 0x6c, 0x2f, 0x75, 0x70, 0x5f, 0x73, 0x61,
0x6d, 0x70, 0x6c, 0x69, 0x6e, 0x67, 0x32, 0x64, 0x2f, 0x73, 0x74, 0x72,
0x69, 0x64, 0x65, 0x64, 0x5f, 0x73, 0x6c, 0x69, 0x63, 0x65, 0x3b, 0x00,
0x01, 0x00, 0x00, 0x00, 0x02, 0x00, 0x00, 0x00, 0x72, 0xfa, 0xff, 0xff,
0x00, 0x00, 0x00, 0x01, 0x14, 0x00, 0x00, 0x00, 0x14, 0x00, 0x00, 0x00,
0x12, 0x00, 0x00, 0x00, 0x00, 0x00, 0x00, 0x02, 0x2c, 0x00, 0x00, 0x00,
0xf0, 0xf8, 0xff, 0xff, 0x1e, 0x00, 0x00, 0x00, 0x73, 0x65, 0x71, 0x75,
0x65, 0x6e, 0x74, 0x69, 0x61, 0x6c, 0x2f, 0x75, 0x70, 0x5f, 0x73, 0x61,
0x6d, 0x70, 0x6c, 0x69, 0x6e, 0x67, 0x32, 0x64, 0x2f, 0x53, 0x68, 0x61,
0x70, 0x65, 0x00, 0x00, 0x01, 0x00, 0x00, 0x00, 0x04, 0x00, 0x00, 0x00,
0x66, 0xf9, 0xff, 0xff, 0x00, 0x00, 0x00, 0x01, 0x14, 0x00, 0x00, 0x00,
0x24, 0x00, 0x00, 0x00, 0x24, 0x00, 0x00, 0x00, 0x11, 0x00, 0x00, 0x00,
0x54, 0x00, 0x00, 0x00, 0x04, 0x00, 0x00, 0x00, 0xff, 0xff, 0xff, 0xff,
0x20, 0x00, 0x00, 0x00, 0xff, 0xff, 0xff, 0xff, 0x08, 0x00, 0x00, 0x00,
0x50, 0xf9, 0xff, 0xff, 0x33, 0x00, 0x00, 0x00, 0x73, 0x65, 0x71, 0x75,
0x65, 0x6e, 0x74, 0x69, 0x61, 0x6c, 0x2f, 0x63, 0x6f, 0x6e, 0x76, 0x32,
0x64, 0x5f, 0x32, 0x2f, 0x52, 0x65, 0x6c, 0x75, 0x3b, 0x73, 0x65, 0x71,
0x75, 0x65, 0x6e, 0x74, 0x69, 0x61, 0x6c, 0x2f, 0x63, 0x6f, 0x6e, 0x76,
0x32, 0x64, 0x5f, 0x32, 0x2f, 0x43, 0x6f, 0x6e, 0x76, 0x32, 0x44, 0x00,
0x04, 0x00, 0x00, 0x00, 0x01, 0x00, 0x00, 0x00, 0x20, 0x00, 0x00, 0x00,
0x01, 0x00, 0x00, 0x00, 0x08, 0x00, 0x00, 0x00, 0xe6, 0xf9, 0xff, 0xff,
0x00, 0x00, 0x00, 0x01, 0x14, 0x00, 0x00, 0x00, 0x24, 0x00, 0x00, 0x00,
0x24, 0x00, 0x00, 0x00, 0x10, 0x00, 0x00, 0x00, 0x44, 0x00, 0x00, 0x00,
0x04, 0x00, 0x00, 0x00, 0xff, 0xff, 0xff, 0xff, 0x20, 0x00, 0x00, 0x00,
0xff, 0xff, 0xff, 0xff, 0x08, 0x00, 0x00, 0x00, 0xd0, 0xf9, 0xff, 0xff,
0x22, 0x00, 0x00, 0x00, 0x73, 0x65, 0x71, 0x75, 0x65, 0x6e, 0x74, 0x69,
0x61, 0x6c, 0x2f, 0x6d, 0x61, 0x78, 0x5f, 0x70, 0x6f, 0x6f, 0x6c, 0x69,
0x6e, 0x67, 0x32, 0x64, 0x5f, 0x31, 0x2f, 0x4d, 0x61, 0x78, 0x50, 0x6f,
0x6f, 0x6c, 0x00, 0x00, 0x04, 0x00, 0x00, 0x00, 0x01, 0x00, 0x00, 0x00,
0x20, 0x00, 0x00, 0x00, 0x01, 0x00, 0x00, 0x00, 0x08, 0x00, 0x00, 0x00,
0x56, 0xfa, 0xff, 0xff, 0x00, 0x00, 0x00, 0x01, 0x14, 0x00, 0x00, 0x00,
0x24, 0x00, 0x00, 0x00, 0x24, 0x00, 0x00, 0x00, 0x0f, 0x00, 0x00, 0x00,
0x54, 0x00, 0x00, 0x00, 0x04, 0x00, 0x00, 0x00, 0xff, 0xff, 0xff, 0xff,
0x40, 0x00, 0x00, 0x00, 0xff, 0xff, 0xff, 0xff, 0x08, 0x00, 0x00, 0x00,
0x40, 0xfa, 0xff, 0xff, 0x33, 0x00, 0x00, 0x00, 0x73, 0x65, 0x71, 0x75,
0x65, 0x6e, 0x74, 0x69, 0x61, 0x6c, 0x2f, 0x63, 0x6f, 0x6e, 0x76, 0x32,
0x64, 0x5f, 0x31, 0x2f, 0x52, 0x65, 0x6c, 0x75, 0x3b, 0x73, 0x65, 0x71,
0x75, 0x65, 0x6e, 0x74, 0x69, 0x61, 0x6c, 0x2f, 0x63, 0x6f, 0x6e, 0x76,
0x32, 0x64, 0x5f, 0x31, 0x2f, 0x43, 0x6f, 0x6e, 0x76, 0x32, 0x44, 0x00,
0x04, 0x00, 0x00, 0x00, 0x01, 0x00, 0x00, 0x00, 0x40, 0x00, 0x00, 0x00,
0x01, 0x00, 0x00, 0x00, 0x08, 0x00, 0x00, 0x00, 0xd6, 0xfa, 0xff, 0xff,
0x00, 0x00, 0x00, 0x01, 0x14, 0x00, 0x00, 0x00, 0x24, 0x00, 0x00, 0x00,
0x24, 0x00, 0x00, 0x00, 0x0e, 0x00, 0x00, 0x00, 0x44, 0x00, 0x00, 0x00,
0x04, 0x00, 0x00, 0x00, 0xff, 0xff, 0xff, 0xff, 0x40, 0x00, 0x00, 0x00,
0xff, 0xff, 0xff, 0xff, 0x10, 0x00, 0x00, 0x00, 0xc0, 0xfa, 0xff, 0xff,
0x20, 0x00, 0x00, 0x00, 0x73, 0x65, 0x71, 0x75, 0x65, 0x6e, 0x74, 0x69,
0x61, 0x6c, 0x2f, 0x6d, 0x61, 0x78, 0x5f, 0x70, 0x6f, 0x6f, 0x6c, 0x69,
0x6e, 0x67, 0x32, 0x64, 0x2f, 0x4d, 0x61, 0x78, 0x50, 0x6f, 0x6f, 0x6c,
0x00, 0x00, 0x00, 0x00, 0x04, 0x00, 0x00, 0x00, 0x01, 0x00, 0x00, 0x00,
0x40, 0x00, 0x00, 0x00, 0x01, 0x00, 0x00, 0x00, 0x10, 0x00, 0x00, 0x00,
0x46, 0xfb, 0xff, 0xff, 0x00, 0x00, 0x00, 0x01, 0x14, 0x00, 0x00, 0x00,
0x24, 0x00, 0x00, 0x00, 0x24, 0x00, 0x00, 0x00, 0x0d, 0x00, 0x00, 0x00,
0x50, 0x00, 0x00, 0x00, 0x04, 0x00, 0x00, 0x00, 0xff, 0xff, 0xff, 0xff,
0x80, 0x00, 0x00, 0x00, 0xff, 0xff, 0xff, 0xff, 0x10, 0x00, 0x00, 0x00,
0x30, 0xfb, 0xff, 0xff, 0x2f, 0x00, 0x00, 0x00, 0x73, 0x65, 0x71, 0x75,
0x65, 0x6e, 0x74, 0x69, 0x61, 0x6c, 0x2f, 0x63, 0x6f, 0x6e, 0x76, 0x32,
0x64, 0x2f, 0x52, 0x65, 0x6c, 0x75, 0x3b, 0x73, 0x65, 0x71, 0x75, 0x65,
0x6e, 0x74, 0x69, 0x61, 0x6c, 0x2f, 0x63, 0x6f, 0x6e, 0x76, 0x32, 0x64,
0x2f, 0x43, 0x6f, 0x6e, 0x76, 0x32, 0x44, 0x00, 0x04, 0x00, 0x00, 0x00,
0x01, 0x00, 0x00, 0x00, 0x80, 0x00, 0x00, 0x00, 0x01, 0x00, 0x00, 0x00,
0x10, 0x00, 0x00, 0x00, 0x1a, 0xfd, 0xff, 0xff, 0x00, 0x00, 0x00, 0x01,
0x14, 0x00, 0x00, 0x00, 0x84, 0x00, 0x00, 0x00, 0x0c, 0x00, 0x00, 0x00,
0x00, 0x00, 0x00, 0x09, 0x90, 0x00, 0x00, 0x00, 0x44, 0xff, 0xff, 0xff,
0x08, 0x00, 0x00, 0x00, 0x48, 0x00, 0x00, 0x00, 0x08, 0x00, 0x00, 0x00,
0x00, 0x00, 0x00, 0x00, 0x00, 0x00, 0x00, 0x00, 0x00, 0x00, 0x00, 0x00,
0x00, 0x00, 0x00, 0x00, 0x00, 0x00, 0x00, 0x00, 0x00, 0x00, 0x00, 0x00,
0x00, 0x00, 0x00, 0x00, 0x00, 0x00, 0x00, 0x00, 0x00, 0x00, 0x00, 0x00,
0x00, 0x00, 0x00, 0x00, 0x00, 0x00, 0x00, 0x00, 0x00, 0x00, 0x00, 0x00,
0x00, 0x00, 0x00, 0x00, 0x00, 0x00, 0x00, 0x00, 0x00, 0x00, 0x00, 0x00,
0x00, 0x00, 0x00, 0x00, 0x08, 0x00, 0x00, 0x00, 0x48, 0xc7, 0xa9, 0x3a,
0x84, 0x9c, 0xab, 0x3a, 0x26, 0x17, 0xab, 0x3a, 0x0b, 0xff, 0xab, 0x3a,
0x10, 0xc5, 0xab, 0x3a, 0x2c, 0xef, 0xa9, 0x3a, 0xd3, 0x37, 0xab, 0x3a,
0x34, 0xf7, 0xaa, 0x3a, 0x12, 0x00, 0x00, 0x00, 0x74, 0x66, 0x6c, 0x2e,
0x70, 0x73, 0x65, 0x75, 0x64, 0x6f, 0x5f, 0x71, 0x63, 0x6f, 0x6e, 0x73,
0x74, 0x31, 0x00, 0x00, 0x04, 0x00, 0x00, 0x00, 0x08, 0x00, 0x00, 0x00,
0x03, 0x00, 0x00, 0x00, 0x03, 0x00, 0x00, 0x00, 0x10, 0x00, 0x00, 0x00,
0xd6, 0xfd, 0xff, 0xff, 0x00, 0x00, 0x00, 0x01, 0x20, 0x00, 0x00, 0x00,
0xf0, 0x00, 0x00, 0x00, 0x0b, 0x00, 0x00, 0x00, 0x00, 0x00, 0x00, 0x09,
0xfc, 0x00, 0x00, 0x00, 0x0c, 0x00, 0x0c, 0x00, 0x00, 0x00, 0x00, 0x00,
0x08, 0x00, 0x04, 0x00, 0x0c, 0x00, 0x00, 0x00, 0x08, 0x00, 0x00, 0x00,
0x88, 0x00, 0x00, 0x00, 0x10, 0x00, 0x00, 0x00, 0x00, 0x00, 0x00, 0x00,
0x00, 0x00, 0x00, 0x00, 0x00, 0x00, 0x00, 0x00, 0x00, 0x00, 0x00, 0x00,
0x00, 0x00, 0x00, 0x00, 0x00, 0x00, 0x00, 0x00, 0x00, 0x00, 0x00, 0x00,
0x00, 0x00, 0x00, 0x00, 0x00, 0x00, 0x00, 0x00, 0x00, 0x00, 0x00, 0x00,
0x00, 0x00, 0x00, 0x00, 0x00, 0x00, 0x00, 0x00, 0x00, 0x00, 0x00, 0x00,
0x00, 0x00, 0x00, 0x00, 0x00, 0x00, 0x00, 0x00, 0x00, 0x00, 0x00, 0x00,
0x00, 0x00, 0x00, 0x00, 0x00, 0x00, 0x00, 0x00, 0x00, 0x00, 0x00, 0x00,
0x00, 0x00, 0x00, 0x00, 0x00, 0x00, 0x00, 0x00, 0x00, 0x00, 0x00, 0x00,
0x00, 0x00, 0x00, 0x00, 0x00, 0x00, 0x00, 0x00, 0x00, 0x00, 0x00, 0x00,
0x00, 0x00, 0x00, 0x00, 0x00, 0x00, 0x00, 0x00, 0x00, 0x00, 0x00, 0x00,
0x00, 0x00, 0x00, 0x00, 0x00, 0x00, 0x00, 0x00, 0x00, 0x00, 0x00, 0x00,
0x00, 0x00, 0x00, 0x00, 0x10, 0x00, 0x00, 0x00, 0xe8, 0x84, 0xab, 0x3a,
0xe4, 0xb1, 0xaa, 0x3a, 0x8e, 0xe4, 0xa7, 0x3a, 0x0b, 0xd7, 0xa6, 0x3a,
0x8f, 0xd3, 0xab, 0x3a, 0x5a, 0xcf, 0xa6, 0x3a, 0x60, 0x9a, 0xa1, 0x3a,
0x2b, 0xdf, 0xaa, 0x3a, 0xfe, 0x3e, 0xaa, 0x3a, 0xff, 0xd1, 0xab, 0x3a,
0xc4, 0x79, 0xa6, 0x3a, 0x74, 0xb0, 0xaa, 0x3a, 0x8c, 0x5f, 0xab, 0x3a,
0x59, 0x25, 0xab, 0x3a, 0x90, 0x56, 0xab, 0x3a, 0x39, 0x42, 0xaa, 0x3a,
0x11, 0x00, 0x00, 0x00, 0x74, 0x66, 0x6c, 0x2e, 0x70, 0x73, 0x65, 0x75,
0x64, 0x6f, 0x5f, 0x71, 0x63, 0x6f, 0x6e, 0x73, 0x74, 0x00, 0x00, 0x00,
0x04, 0x00, 0x00, 0x00, 0x10, 0x00, 0x00, 0x00, 0x03, 0x00, 0x00, 0x00,
0x03, 0x00, 0x00, 0x00, 0x08, 0x00, 0x00, 0x00, 0x02, 0xfe, 0xff, 0xff,
0x00, 0x00, 0x00, 0x01, 0x10, 0x00, 0x00, 0x00, 0x10, 0x00, 0x00, 0x00,
0x0a, 0x00, 0x00, 0x00, 0x1c, 0x00, 0x00, 0x00, 0x78, 0xfd, 0xff, 0xff,
0x0f, 0x00, 0x00, 0x00, 0x61, 0x72, 0x69, 0x74, 0x68, 0x2e, 0x63, 0x6f,
0x6e, 0x73, 0x74, 0x61, 0x6e, 0x74, 0x38, 0x00, 0x04, 0x00, 0x00, 0x00,
0x01, 0x00, 0x00, 0x00, 0x03, 0x00, 0x00, 0x00, 0x03, 0x00, 0x00, 0x00,
0x10, 0x00, 0x00, 0x00, 0x42, 0xff, 0xff, 0xff, 0x00, 0x00, 0x00, 0x01,
0x14, 0x00, 0x00, 0x00, 0x14, 0x00, 0x00, 0x00, 0x09, 0x00, 0x00, 0x00,
0x00, 0x00, 0x00, 0x02, 0x1c, 0x00, 0x00, 0x00, 0xc0, 0xfd, 0xff, 0xff,
0x0f, 0x00, 0x00, 0x00, 0x61, 0x72, 0x69, 0x74, 0x68, 0x2e, 0x63, 0x6f,
0x6e, 0x73, 0x74, 0x61, 0x6e, 0x74, 0x37, 0x00, 0x01, 0x00, 0x00, 0x00,
0x01, 0x00, 0x00, 0x00, 0x7e, 0xff, 0xff, 0xff, 0x00, 0x00, 0x00, 0x01,
0x14, 0x00, 0x00, 0x00, 0x14, 0x00, 0x00, 0x00, 0x08, 0x00, 0x00, 0x00,
0x00, 0x00, 0x00, 0x02, 0x1c, 0x00, 0x00, 0x00, 0xfc, 0xfd, 0xff, 0xff,
0x0f, 0x00, 0x00, 0x00, 0x61, 0x72, 0x69, 0x74, 0x68, 0x2e, 0x63, 0x6f,
0x6e, 0x73, 0x74, 0x61, 0x6e, 0x74, 0x36, 0x00, 0x01, 0x00, 0x00, 0x00,
0x01, 0x00, 0x00, 0x00, 0xbe, 0xfe, 0xff, 0xff, 0x00, 0x00, 0x00, 0x01,
0x10, 0x00, 0x00, 0x00, 0x10, 0x00, 0x00, 0x00, 0x07, 0x00, 0x00, 0x00,
0x1c, 0x00, 0x00, 0x00, 0x34, 0xfe, 0xff, 0xff, 0x0f, 0x00, 0x00, 0x00,
0x61, 0x72, 0x69, 0x74, 0x68, 0x2e, 0x63, 0x6f, 0x6e, 0x73, 0x74, 0x61,
0x6e, 0x74, 0x35, 0x00, 0x04, 0x00, 0x00, 0x00, 0x08, 0x00, 0x00, 0x00,
0x03, 0x00, 0x00, 0x00, 0x03, 0x00, 0x00, 0x00, 0x08, 0x00, 0x00, 0x00,
0x00, 0x00, 0x16, 0x00, 0x1c, 0x00, 0x18, 0x00, 0x17, 0x00, 0x10, 0x00,
0x0c, 0x00, 0x08, 0x00, 0x00, 0x00, 0x00, 0x00, 0x00, 0x00, 0x07, 0x00,
0x16, 0x00, 0x00, 0x00, 0x00, 0x00, 0x00, 0x01, 0x14, 0x00, 0x00, 0x00,
0x14, 0x00, 0x00, 0x00, 0x06, 0x00, 0x00, 0x00, 0x00, 0x00, 0x00, 0x02,
0x1c, 0x00, 0x00, 0x00, 0x94, 0xfe, 0xff, 0xff, 0x0f, 0x00, 0x00, 0x00,
0x61, 0x72, 0x69, 0x74, 0x68, 0x2e, 0x63, 0x6f, 0x6e, 0x73, 0x74, 0x61,
0x6e, 0x74, 0x34, 0x00, 0x01, 0x00, 0x00, 0x00, 0x02, 0x00, 0x00, 0x00,
0x56, 0xff, 0xff, 0xff, 0x00, 0x00, 0x00, 0x01, 0x10, 0x00, 0x00, 0x00,
0x10, 0x00, 0x00, 0x00, 0x05, 0x00, 0x00, 0x00, 0x1c, 0x00, 0x00, 0x00,
0xcc, 0xfe, 0xff, 0xff, 0x0f, 0x00, 0x00, 0x00, 0x61, 0x72, 0x69, 0x74,
0x68, 0x2e, 0x63, 0x6f, 0x6e, 0x73, 0x74, 0x61, 0x6e, 0x74, 0x33, 0x00,
0x01, 0x00, 0x00, 0x00, 0x08, 0x00, 0x00, 0x00, 0x8e, 0xff, 0xff, 0xff,
0x00, 0x00, 0x00, 0x01, 0x10, 0x00, 0x00, 0x00, 0x10, 0x00, 0x00, 0x00,
0x04, 0x00, 0x00, 0x00, 0x1c, 0x00, 0x00, 0x00, 0x04, 0xff, 0xff, 0xff,
0x0f, 0x00, 0x00, 0x00, 0x61, 0x72, 0x69, 0x74, 0x68, 0x2e, 0x63, 0x6f,
0x6e, 0x73, 0x74, 0x61, 0x6e, 0x74, 0x32, 0x00, 0x01, 0x00, 0x00, 0x00,
0x10, 0x00, 0x00, 0x00, 0xc6, 0xff, 0xff, 0xff, 0x00, 0x00, 0x00, 0x01,
0x10, 0x00, 0x00, 0x00, 0x10, 0x00, 0x00, 0x00, 0x03, 0x00, 0x00, 0x00,
0x1c, 0x00, 0x00, 0x00, 0x3c, 0xff, 0xff, 0xff, 0x0f, 0x00, 0x00, 0x00,
0x61, 0x72, 0x69, 0x74, 0x68, 0x2e, 0x63, 0x6f, 0x6e, 0x73, 0x74, 0x61,
0x6e, 0x74, 0x31, 0x00, 0x01, 0x00, 0x00, 0x00, 0x01, 0x00, 0x00, 0x00,
0x00, 0x00, 0x16, 0x00, 0x18, 0x00, 0x14, 0x00, 0x00, 0x00, 0x10, 0x00,
0x0c, 0x00, 0x08, 0x00, 0x00, 0x00, 0x00, 0x00, 0x00, 0x00, 0x07, 0x00,
0x16, 0x00, 0x00, 0x00, 0x00, 0x00, 0x00, 0x01, 0x10, 0x00, 0x00, 0x00,
0x10, 0x00, 0x00, 0x00, 0x02, 0x00, 0x00, 0x00, 0x1c, 0x00, 0x00, 0x00,
0x8c, 0xff, 0xff, 0xff, 0x0e, 0x00, 0x00, 0x00, 0x61, 0x72, 0x69, 0x74,
0x68, 0x2e, 0x63, 0x6f, 0x6e, 0x73, 0x74, 0x61, 0x6e, 0x74, 0x00, 0x00,
0x04, 0x00, 0x00, 0x00, 0x10, 0x00, 0x00, 0x00, 0x03, 0x00, 0x00, 0x00,
0x03, 0x00, 0x00, 0x00, 0x01, 0x00, 0x00, 0x00, 0x00, 0x00, 0x16, 0x00,
0x1c, 0x00, 0x18, 0x00, 0x00, 0x00, 0x14, 0x00, 0x10, 0x00, 0x0c, 0x00,
0x00, 0x00, 0x00, 0x00, 0x08, 0x00, 0x07, 0x00, 0x16, 0x00, 0x00, 0x00,
0x00, 0x00, 0x00, 0x01, 0x14, 0x00, 0x00, 0x00, 0x28, 0x00, 0x00, 0x00,
0x28, 0x00, 0x00, 0x00, 0x01, 0x00, 0x00, 0x00, 0x40, 0x00, 0x00, 0x00,
0x04, 0x00, 0x00, 0x00, 0xff, 0xff, 0xff, 0xff, 0x80, 0x00, 0x00, 0x00,
0xff, 0xff, 0xff, 0xff, 0x01, 0x00, 0x00, 0x00, 0x04, 0x00, 0x04, 0x00,
0x04, 0x00, 0x00, 0x00, 0x19, 0x00, 0x00, 0x00, 0x73, 0x65, 0x72, 0x76,
0x69, 0x6e, 0x67, 0x5f, 0x64, 0x65, 0x66, 0x61, 0x75, 0x6c, 0x74, 0x5f,
0x69, 0x6e, 0x70, 0x75, 0x74, 0x5f, 0x31, 0x3a, 0x30, 0x00, 0x00, 0x00,
0x04, 0x00, 0x00, 0x00, 0x01, 0x00, 0x00, 0x00, 0x80, 0x00, 0x00, 0x00,
0x01, 0x00, 0x00, 0x00, 0x01, 0x00, 0x00, 0x00, 0x07, 0x00, 0x00, 0x00,
0x80, 0x00, 0x00, 0x00, 0x64, 0x00, 0x00, 0x00, 0x48, 0x00, 0x00, 0x00,
0x38, 0x00, 0x00, 0x00, 0x28, 0x00, 0x00, 0x00, 0x14, 0x00, 0x00, 0x00,
0x04, 0x00, 0x00, 0x00, 0xc0, 0xff, 0xff, 0xff, 0x0e, 0x00, 0x00, 0x00,
0x00, 0x00, 0x00, 0x0e, 0xb4, 0xff, 0xff, 0xff, 0x61, 0x00, 0x00, 0x00,
0x03, 0x00, 0x00, 0x00, 0x00, 0x00, 0x00, 0x61, 0xdc, 0xff, 0xff, 0xff,
0x12, 0x00, 0x00, 0x00, 0x00, 0x00, 0x00, 0x12, 0xe8, 0xff, 0xff, 0xff,
0x41, 0x00, 0x00, 0x00, 0x00, 0x00, 0x00, 0x41, 0xf4, 0xff, 0xff, 0xff,
0x4d, 0x00, 0x00, 0x00, 0x00, 0x00, 0x00, 0x4d, 0x0c, 0x00, 0x0c, 0x00,
0x0b, 0x00, 0x00, 0x00, 0x00, 0x00, 0x04, 0x00, 0x0c, 0x00, 0x00, 0x00,
0x11, 0x00, 0x00, 0x00, 0x00, 0x00, 0x00, 0x11, 0x0c, 0x00, 0x10, 0x00,
0x0f, 0x00, 0x00, 0x00, 0x08, 0x00, 0x04, 0x00, 0x0c, 0x00, 0x00, 0x00,
0x03, 0x00, 0x00, 0x00, 0x05, 0x00, 0x00, 0x00, 0x00, 0x00, 0x00, 0x03,
};

unsigned int model_len = 10872;

#endif // MODEL_H
